{"<BOS>":0,"<EOS>":1,"<USER>":2,"<ASSISTANT>":3,"<EOT>":4,"!":5,"\"":6,"#":7,"$":8,"%":9,"&":10,"'":11,"(":12,")":13,"*":14,"+":15,",":16,"-":17,".":18,"/":19,"0":20,"1":21,"2":22,"3":23,"4":24,"5":25,"6":26,"7":27,"8":28,"9":29,":":30,";":31,"<":32,"=":33,">":34,"?":35,"@":36,"A":37,"B":38,"C":39,"D":40,"E":41,"F":42,"G":43,"H":44,"I":45,"J":46,"K":47,"L":48,"M":49,"N":50,"O":51,"P":52,"Q":53,"R":54,"S":55,"T":56,"U":57,"V":58,"W":59,"X":60,"Y":61,"Z":62,"[":63,"\\":64,"]":65,"^":66,"_":67,"`":68,"a":69,"b":70,"c":71,"d":72,"e":73,"f":74,"g":75,"h":76,"i":77,"j":78,"k":79,"l":80,"m":81,"n":82,"o":83,"p":84,"q":85,"r":86,"s":87,"t":88,"u":89,"v":90,"w":91,"x":92,"y":93,"z":94,"{":95,"|":96,"}":97,"~":98,"¡":99,"¢":100,"£":101,"¤":102,"¥":103,"¦":104,"§":105,"¨":106,"©":107,"ª":108,"«":109,"¬":110,"®":111,"¯":112,"°":113,"±":114,"²":115,"³":116,"´":117,"µ":118,"¶":119,"·":120,"¸":121,"¹":122,"º":123,"»":124,"¼":125,"½":126,"¾":127,"¿":128,"À":129,"Á":130,"Â":131,"Ã":132,"Ä":133,"Å":134,"Æ":135,"Ç":136,"È":137,"É":138,"Ê":139,"Ë":140,"Ì":141,"Í":142,"Î":143,"Ï":144,"Ð":145,"Ñ":146,"Ò":147,"Ó":148,"Ô":149,"Õ":150,"Ö":151,"×":152,"Ø":153,"Ù":154,"Ú":155,"Û":156,"Ü":157,"Ý":158,"Þ":159,"ß":160,"à":161,"á":162,"â":163,"ã":164,"ä":165,"å":166,"æ":167,"ç":168,"è":169,"é":170,"ê":171,"ë":172,"ì":173,"í":174,"î":175,"ï":176,"ð":177,"ñ":178,"ò":179,"ó":180,"ô":181,"õ":182,"ö":183,"÷":184,"ø":185,"ù":186,"ú":187,"û":188,"ü":189,"ý":190,"þ":191,"ÿ":192,"Ā":193,"ā":194,"Ă":195,"ă":196,"Ą":197,"ą":198,"Ć":199,"ć":200,"Ĉ":201,"ĉ":202,"Ċ":203,"ċ":204,"Č":205,"č":206,"Ď":207,"ď":208,"Đ":209,"đ":210,"Ē":211,"ē":212,"Ĕ":213,"ĕ":214,"Ė":215,"ė":216,"Ę":217,"ę":218,"Ě":219,"ě":220,"Ĝ":221,"ĝ":222,"Ğ":223,"ğ":224,"Ġ":225,"ġ":226,"Ģ":227,"ģ":228,"Ĥ":229,"ĥ":230,"Ħ":231,"ħ":232,"Ĩ":233,"ĩ":234,"Ī":235,"ī":236,"Ĭ":237,"ĭ":238,"Į":239,"į":240,"İ":241,"ı":242,"Ĳ":243,"ĳ":244,"Ĵ":245,"ĵ":246,"Ķ":247,"ķ":248,"ĸ":249,"Ĺ":250,"ĺ":251,"Ļ":252,"ļ":253,"Ľ":254,"ľ":255,"Ŀ":256,"ŀ":257,"Ł":258,"ł":259,"Ń":260,"Ġt":261,"he":262,"Ġa":263,"in":264,"Ġthe":265,"er":266,"on":267,"re":268,"Ġs":269,"at":270,"Ġo":271,"Ġw":272,"ed":273,"nd":274,"Ġ,":275,"Ġc":276,"or":277,"en":278,"es":279,"it":280,"is":281,"an":282,"Ġf":283,"ar":284,"Ġb":285,"Ġof":286,"al":287,"Ġin":288,"Ġp":289,"ing":290,"Ġ.":291,"as":292,"Ġand":293,"Ġm":294,"Ġto":295,"ic":296,"ou":297,"EO":298,"Ġd":299,"ion":300,"le":301,"Ġh":302,"ro":303,"EOT":304,"Ġre":305,"ent":306,"il":307,"ĠT":308,"ĠS":309,"st":310,"Ġth":311,"Ġl":312,"el":313,"om":314,"Ġe":315,"ĠA":316,"am":317,"Ġn":318,"ct":319,"Ġ1":320,"ĠC":321,"id":322,"Ġ\"":323,"ad":324,"et":325,"Ġwas":326,"Ġg":327,"ol":328,"ur":329,"Ġon":330,"ĠM":331,"im":332,"ly":333,"iv":334,"ow":335,"Ġfor":336,"ac":337,"ig":338,"us":339,"Ġ@":340,"ir":341,"Ġis":342,"ĠB":343,"Ġbe":344,"ot":345,"ĠI":346,"ut":347,"US":348,"Ġst":349,"ay":350,"Ġas":351,"ation":352,"ER":353,"AS":354,"ers":355,"ST":356,"USER":357,"AN":358,"SI":359,"ANT":360,"STANT":361,"SISTANT":362,"ASSISTANT":363,"ith":364,"OS":365,"EOS":366,"BOS":367,"ce":368,"ĠThe":369,"ĠH":370,"Ġ'":371,"Ġwh":372,"ch":373,"Ġthat":374,"her":375,"Ġwith":376,"ter":377,"ĠP":378,"Ġ2":379,"un":380,"ul":381,"-@":382,"Ġ@-@":383,"ra":384,"ver":385,"em":386,"Ġcon":387,"th":388,"ĠR":389,"ĠD":390,"Ġal":391,"Ġby":392,"Ġan":393,"os":394,"ĠW":395,"ĠF":396,"Ġit":397,"Ġ(":398,"um":399,"ag":400,"ĠG":401,"est":402,"ĠN":403,"Ġat":404,"and":405,"ĠL":406,"rom":407,"av":408,"od":409,"ist":410,"Ġhe":411,"pe":412,"if":413,"00":414,"ain":415,"Ġ19":416,"Ġde":417,"Ġv":418,"Ġse":419,"Ġr":420,"Ġcom":421,"ĠE":422,"Ġpro":423,"Ġy":424,"ri":425,"ĠJ":426,"op":427,"ld":428,"Wh":429,"Ġfrom":430,"Ġ)":431,"ate":432,"Ġor":433,"Ġare":434,"ill":435,"ore":436,"ies":437,"ort":438,"ich":439,"igh":440,"ak":441,"res":442,"Ġsu":443,"art":444,"all":445,"ab":446,"Ġex":447,"oc":448,"ity":449,"qu":450,"ew":451,"ant":452,"Ġhis":453,"ĠO":454,"ere":455,"ess":456,"ard":457,"Ġch":458,"ive":459,"Ġpl":460,"our":461,"ap":462,"ud":463,"ber":464,"ame":465,"se":466,"ong":467,"Ġwere":468,"ated":469,"Ġsh":470,"Ġk":471,"What":472,"te":473,"gh":474,"ip":475,"ge":476,"Ġle":477,"ĠK":478,"ment":479,"rou":480,"ial":481,"ast":482,"Ġwhich":483,"ack":484,"ian":485,"ear":486,"ia":487,"ell":488,"ov":489,"ure":490,"ost":491,"nt":492,"ight":493,"Ġus":494,"ave":495,"ine":496,"pt":497,"Ġnot":498,"pp":499,"ĠU":500,"ical":501,"âĢ":502,"ĠIn":503,"ction":504,"ther":505,"ord":506,"ust":507,"Ġu":508,"Ġhad":509,"ire":510,"ary":511,"rit":512,"ould":513,"Ġcomp":514,"ĠSt":515,"cl":516,"hen":517,"ide":518,"ome":519,"per":520,"The":521,"og":522,"Ġun":523,"ish":524,"ĠâĢ":525,"ĠCh":526,"ous":527,"ue":528,"irst":529,"cc":530,"ie":531,"age":532,"Ġ3":533,"are":534,"ry":535,"out":536,"ass":537,"Ġhave":538,"ff":539,"so":540,"Ġab":541,"Ġcont":542,"Ġtheir":543,"ub":544,"ran":545,"Ġ20":546,"ork":547,"Ġcl":548,"iz":549,"ok":550,"Ġbut":551,"ĠV":552,"Ġint":553,"Ġfirst":554,"pl":555,"Ġar":556,"Ġad":557,"Ġman":558,"mer":559,"Ġcan":560,"ru":561,"ition":562,"ect":563,"Ġ200":564,"Ġte":565,"ign":566,"orm":567,"Ġits":568,"fter":569,"du":570,"ime":571,"ater":572,"Ġper":573,"wo":574,"low":575,"ult":576,"Ġalso":577,"Ġen":578,"Ġres":579,"Ġhas":580,"ond":581,"ence":582,"act":583,"ally":584,"Ġyou":585,"ke":586,"Ġone":587,"own":588,"Ġsc":589,"ree":590,"Ġdid":591,"ach":592,"Ġyear":593,"ile":594,"Ġim":595,"ib":596,"ount":597,"'s":598,"ations":599,"ound":600,"Ġher":601,"hed":602,"ice":603,"Ġthis":604,"ĠHe":605,"Ġwho":606,"Ġrec":607,"Ġne":608,"ĠTh":609,"Ġother":610,"fer":611,"Ġpart":612,"ace":613,"ĠIt":614,"Ġj":615,"ric":616,"Ġdis":617,"Ġdo":618,"uring":619,"ely":620,"Ġro":621,"Ġplay":622,"ory":623,"Ġgo":624,"Ġbec":625,"Ġtwo":626,"Ġ4":627,"ind":628,"port":629,"Ġ;":630,"ang":631,"land":632,"clud":633,"Ġ18":634,"Ġ5":635,"Ġser":636,"Ġout":637,"ions":638,"ough":639,"Ġwhat":640,"Ġthey":641,"ĠâĢĵ":642,"Ġpre":643,"ance":644,"ark":645,"Ġ201":646,"Ġbeen":647,"Ġdes":648,"ĠY":649,"vel":650,"Ġag":651,"ph":652,"Ġwe":653,"Ġme":654,"Ġover":655,"here":656,"ens":657,"one":658,"Ġ:":659,"able":660,"ates":661,"ade":662,"ase":663,"Ġspe":664,"ĠAl":665,"Ġtime":666,"ors":667,"ake":668,"Ġup":669,"ng":670,"ress":671,"Ġinclud":672,"Ġmore":673,"man":674,"we":675,"ĠUn":676,"Ġsp":677,"wn":678,"nder":679,"Ġafter":680,"Ġwould":681,"ite":682,"Ġall":683,"Ġinto":684,"ased":685,"ced":686,"ve":687,"Ġcomm":688,"les":689,"int":690,"urn":691,"tern":692,".@":693,"Ġ@.@":694,"amp":695,"ose":696,"ild":697,"ited":698,"Ġev":699,"ces":700,"ings":701,"form":702,"ons":703,"ne":704,"ents":705,"Ġwork":706,"Ġoff":707,"reat":708,"In":709,"ail":710,"Ġbet":711,"Ġco":712,"Ġmost":713,",@":714,"Ġ@,@":715,"Ġwhen":716,"rough":717,"old":718,"aus":719,"ft":720,"oy":721,"ward":722,"ied":723,"ĠSe":724,"Ġatt":725,"ans":726,"Ġcons":727,"ick":728,"xt":729,"Ġfe":730,"Ġkn":731,"orld":732,"Ġmany":733,"Ġnew":734,"ĠRe":735,"Ġabout":736,"aw":737,"ict":738,"Ġpe":739,"als":740,"Ġ6":741,"rib":742,"Ġtr":743,"Ġthem":744,"Ġshe":745,"Ġsec":746,"ious":747,"Ġcent":748,"Ġsome":749,"Ġhim":750,"Ġso":751,"iss":752,"Ġqu":753,"ood":754,"ubl":755,"att":756,"ween":757,"Ġgame":758,"gan":759,"ob":760,"ational":761,"ck":762,"round":763,"ember":764,"Ġthan":765,"Ġcol":766,"Ġused":767,"Ġsy":768,"red":769,"meric":770,"way":771,"Ġprodu":772,"ath":773,"Ġbu":774,"Ġ7":775,"ike":776,"Ġbetween":777,"ĠDe":778,"ular":779,"Ġapp":780,"oth":781,"ollow":782,"Ġrel":783,"ilm":784,"ved":785,"Ġduring":786,"ered":787,"ron":788,"Ġear":789,"ason":790,"ĠAmeric":791,"ss":792,"Ġrem":793,"ook":794,"ific":795,"Ġunder":796,"ning":797,"orth":798,"ug":799,"Ġonly":800,"inal":801,"Ġform":802,"Ġinter":803,"ĠMar":804,"hip":805,"Ġsuch":806,"lect":807,"Ġpo":808,"Ġfl":809,"Ġ8":810,"ĠAr":811,"Ġchar":812,"Ġreg":813,"Ġgen":814,"ock":815,"ix":816,"Ġnum":817,"fore":818,"Ġacc":819,"Ġthrough":820,"Ġinc":821,"ating":822,"Ġtra":823,"ics":824,"Ġspec":825,"Ġthere":826,"Ġact":827,"ĠNew":828,"Ġam":829,"outh":830,"Ġwhere":831,"Ġpos":832,"Ġlar":833,"Ġpr":834,"ted":835,"Ġagain":836,"Ġind":837,"ral":838,"Ġra":839,"Ġend":840,"Ġ199":841,"very":842,"Ġsong":843,"Ġ9":844,"Ġrele":845,"000":846,"Ġday":847,"ames":848,"Ġret":849,"Ġthree":850,"ren":851,"Ġfilm":852,"Ġass":853,"iew":854,"oh":855,"Ġmov":856,"Ġcall":857,"Ġsub":858,"Ġfollow":859,"ual":860,"ten":861,"Ġloc":862,"Ġwhile":863,"Ġmade":864,"rans":865,"ĠThis":866,"Ġdif":867,"ĠLe":868,"ins":869,"ople":870,"ll":871,"hes":872,"Ġdef":873,"ars":874,"Ġinv":875,"Ġmus":876,"Ġwrit":877,"ever":878,"end":879,"iel":880,"ury":881,"Ġteam":882,"ode":883,"Ġyour":884,"ower":885,"Ġuse":886,"ivers":887,"pen":888,"io":889,"ps":890,"ities":891,"erm":892,"ts":893,"Ġac":894,"velop":895,"Ġlater":896,"ram":897,"Ġyears":898,"Ġsecond":899,"ject":900,"Ġrecord":901,"ished":902,"Ġap":903,"How":904,"olog":905,"Ġset":906,"Ġcre":907,"stem":908,"ines":909,"Ġhigh":910,"ident":911,"Ġadd":912,"ĠCom":913,"Ġpop":914,"Ġbl":915,"ool":916,"Ġpol":917,"orn":918,"ily":919,"ton":920,"ause":921,"Ġpubl":922,"ise":923,"ank":924,"Ġsupp":925,"Ġhow":926,"Ġfound":927,"Ġseason":928,"ik":929,"Ġbeing":930,"ision":931,"Ġem":932,"Ġbefore":933,"ived":934,"Ġsur":935,"tain":936,"Ġfour":937,"Ġimp":938,"Ġent":939,"Ġmet":940,"Ġdec":941,"ures":942,"Ġty":943,"Ġpeople":944,"Ġ10":945,"Ġwill":946,"its":947,"aid":948,"aj":949,"ather":950,"other":951,"au":952,"any":953,"Ġprov":954,"Ġdevelop":955,"Ġpres":956,"Ġno":957,"Ġcould":958,"Ġthen":959,"Ġany":960,"Ġlong":961,"ful":962,"ĠUnited":963,"uch":964,"Ġtrans":965,"Ġnumber":966,"Ġknown":967,"Who":968,"Ġcount":969,"Ġcap":970,"iet":971,"Ġmain":972,"ince":973,"Ġlead":974,"ife":975,"ement":976,"Ġinst":977,"Ġwell":978,"Ġ/":979,"bum":980,"ey":981,"row":982,"Ġstud":983,"Ġph":984,"Ġmod":985,"ep":986,"Ġmay":987,"Ġback":988,"ĠSh":989,"ative":990,"Ġcharact":991,"Ġsystem":992,"ĠAs":993,"iver":994,"Ġsm":995,"Ġ0":996,"eral":997,"air":998,"ĠEng":999,"ism":1000,"elf":1001,"ĠBrit":1002,"ature":1003,"oun":1004,"ined":1005,"Ġep":1006,"Ġlike":1007,"ale":1008,"Ġsing":1009,"Ġob":1010,"illion":1011,"ier":1012,"ield":1013,"pr":1014,"ek":1015,"Ġincluding":1016,"ting":1017,"vern":1018,"Ġmon":1019,"Ġappe":1020,"cess":1021,"ĠAmerican":1022,"Ġcar":1023}