#version: 0.2
Ġ t
h e
Ġ a
i n
Ġt he
e r
o n
r e
Ġ s
a t
Ġ o
Ġ w
e d
n d
Ġ ,
Ġ c
o r
e n
e s
i t
i s
a n
Ġ f
a r
Ġ b
Ġo f
a l
Ġ in
Ġ p
in g
Ġ .
a s
Ġa nd
Ġ m
Ġt o
i c
o u
E O
Ġ d
i on
l e
Ġ h
r o
EO T
Ġ re
en t
i l
Ġ T
Ġ S
s t
Ġt h
Ġ l
e l
o m
Ġ e
Ġ A
a m
Ġ n
c t
Ġ 1
Ġ C
i d
Ġ "
a d
e t
Ġw as
Ġ g
o l
u r
Ġ on
Ġ M
i m
l y
i v
o w
Ġf or
a c
i g
u s
Ġ @
i r
Ġ is
Ġ B
Ġb e
o t
Ġ I
u t
U S
Ġs t
a y
Ġa s
at ion
E R
A S
er s
S T
US ER
A N
S I
AN T
ST ANT
SI STANT
AS SISTANT
it h
O S
EO S
B OS
c e
ĠT he
Ġ H
Ġ '
Ġw h
c h
Ġth at
he r
Ġw ith
t er
Ġ P
Ġ 2
u n
u l
- @
Ġ@ -@
r a
v er
e m
Ġc on
t h
Ġ R
Ġ D
Ġa l
Ġb y
Ġa n
o s
Ġ W
Ġ F
Ġ it
Ġ (
u m
a g
Ġ G
es t
Ġ N
Ġa t
a nd
Ġ L
ro m
a v
o d
is t
Ġ he
p e
i f
0 0
a in
Ġ1 9
Ġd e
Ġ v
Ġs e
Ġ r
Ġc om
Ġ E
Ġp ro
Ġ y
r i
Ġ J
o p
l d
W h
Ġf rom
Ġ )
at e
Ġo r
Ġa re
il l
o re
i es
or t
ic h
ig h
a k
re s
Ġs u
ar t
al l
a b
Ġe x
o c
it y
q u
e w
an t
Ġh is
Ġ O
er e
es s
ar d
Ġc h
iv e
Ġp l
ou r
a p
u d
b er
am e
s e
on g
Ġw ere
at ed
Ġs h
Ġ k
Wh at
t e
g h
i p
g e
Ġ le
Ġ K
m ent
r ou
i al
as t
Ġwh ich
ac k
i an
e ar
i a
el l
o v
u re
o st
n t
igh t
Ġ us
av e
in e
p t
Ġn ot
p p
Ġ U
ic al
â Ģ
ĠI n
ct ion
t her
or d
u st
Ġ u
Ġh ad
i re
ar y
r it
ou ld
Ġcom p
ĠS t
c l
he n
id e
om e
p er
T he
o g
Ġ un
is h
Ġ âĢ
ĠC h
ou s
u e
ir st
c c
i e
ag e
Ġ 3
a re
r y
ou t
as s
Ġh ave
f f
s o
Ġa b
Ġcon t
Ġthe ir
u b
r an
Ġ2 0
or k
Ġc l
i z
o k
Ġb ut
Ġ V
Ġin t
Ġf irst
p l
Ġa r
Ġa d
Ġm an
m er
Ġc an
r u
it ion
e ct
Ġ2 00
Ġt e
ig n
or m
Ġit s
f ter
d u
im e
at er
Ġp er
w o
l ow
ul t
Ġal so
Ġ en
Ġre s
Ġh as
on d
en ce
a ct
al ly
Ġy ou
k e
Ġon e
ow n
Ġs c
re e
Ġd id
ac h
Ġy ear
i le
Ġ im
i b
ou nt
' s
ation s
ou nd
Ġ her
he d
ic e
Ġth is
ĠH e
Ġwh o
Ġre c
Ġn e
ĠT h
Ġo ther
f er
Ġp art
ac e
ĠI t
Ġ j
r ic
Ġd is
Ġd o
ur ing
el y
Ġ ro
Ġpl ay
or y
Ġg o
Ġbe c
Ġt wo
Ġ 4
in d
p ort
Ġ ;
an g
l and
cl ud
Ġ1 8
Ġ 5
Ġs er
Ġo ut
ion s
ou gh
Ġwh at
Ġthe y
ĠâĢ ĵ
Ġp re
an ce
ar k
Ġ20 1
Ġbe en
Ġd es
Ġ Y
v el
Ġa g
p h
Ġw e
Ġm e
Ġo ver
he re
en s
on e
Ġ :
ab le
at es
ad e
as e
Ġs pe
ĠA l
Ġt ime
or s
ak e
Ġu p
n g
res s
Ġin clud
Ġm ore
m an
w e
ĠU n
Ġs p
w n
nd er
Ġa fter
Ġw ould
it e
Ġal l
Ġint o
as ed
c ed
v e
Ġcom m
l es
in t
ur n
ter n
. @
Ġ@ .@
am p
os e
il d
it ed
Ġe v
c es
ing s
f orm
on s
n e
ent s
Ġw ork
Ġof f
re at
I n
a il
Ġb et
Ġc o
Ġm ost
, @
Ġ@ ,@
Ġw hen
rou gh
ol d
a us
f t
o y
w ard
i ed
ĠS e
Ġat t
an s
Ġcon s
ic k
x t
Ġf e
Ġk n
or ld
Ġman y
Ġn ew
ĠR e
Ġab out
a w
ic t
Ġp e
al s
Ġ 6
ri b
Ġt r
Ġthe m
Ġs he
Ġse c
i ous
Ġc ent
Ġs ome
Ġh im
Ġs o
is s
Ġ qu
o od
ub l
at t
we en
Ġg ame
g an
o b
ation al
c k
rou nd
em ber
Ġth an
Ġc ol
Ġus ed
Ġs y
re d
mer ic
w ay
Ġpro du
at h
Ġb u
Ġ 7
i ke
Ġbet ween
ĠD e
ul ar
Ġa pp
ot h
ol low
Ġre l
il m
v ed
Ġd uring
er ed
r on
Ġe ar
as on
ĠA meric
s s
Ġre m
o ok
if ic
Ġu nder
n ing
or th
u g
Ġon ly
in al
Ġfor m
Ġin ter
ĠM ar
h ip
Ġsu ch
le ct
Ġp o
Ġf l
Ġ 8
ĠA r
Ġch ar
Ġre g
Ġg en
oc k
i x
Ġn um
f ore
Ġa cc
Ġth rough
Ġin c
at ing
Ġt ra
ic s
Ġspe c
Ġthe re
Ġa ct
ĠN ew
Ġa m
ou th
Ġw here
Ġp os
Ġl ar
Ġp r
t ed
Ġag ain
Ġin d
r al
Ġ ra
Ġe nd
Ġ19 9
ver y
Ġs ong
Ġ 9
Ġre le
00 0
Ġd ay
am es
Ġre t
Ġth ree
re n
Ġf ilm
Ġas s
i ew
o h
Ġm ov
Ġc all
Ġsu b
Ġf ollow
u al
t en
Ġl oc
Ġwh ile
Ġm ade
ran s
ĠTh is
Ġd if
ĠL e
in s
op le
l l
he s
Ġde f
ar s
Ġin v
Ġm us
Ġw rit
e ver
e nd
i el
ur y
Ġte am
od e
Ġy our
ow er
Ġus e
iv ers
p en
i o
p s
it ies
er m
t s
Ġa c
vel op
Ġl ater
r am
Ġyear s
Ġsec ond
j ect
Ġrec ord
is hed
Ġa p
H ow
ol og
Ġs et
Ġc re
st em
in es
Ġh igh
id ent
Ġad d
ĠC om
Ġp op
Ġb l
o ol
Ġp ol
or n
il y
t on
aus e
Ġp ubl
is e
an k
Ġsu pp
Ġh ow
Ġf ound
Ġse ason
i k
Ġbe ing
is ion
Ġe m
Ġbe fore
iv ed
Ġs ur
t ain
Ġf our
Ġim p
Ġ ent
Ġm et
Ġde c
u res
Ġt y
Ġpe ople
Ġ1 0
Ġw ill
it s
a id
a j
at her
ot her
a u
an y
Ġpro v
Ġde velop
Ġp res
Ġn o
Ġc ould
Ġthe n
Ġan y
Ġl ong
f ul
ĠUn ited
u ch
Ġt rans
Ġnum ber
Ġkn own
Wh o
Ġc ount
Ġc ap
i et
Ġm ain
in ce
Ġle ad
if e
em ent
Ġin st
Ġw ell
Ġ /
b um
e y
ro w
Ġst ud
Ġp h
Ġm od
e p
Ġm ay
Ġb ack
ĠS h
at ive
Ġchar act
Ġsy stem
ĠA s
iv er
Ġs m
Ġ 0
er al
a ir
ĠE ng
is m
el f
ĠB rit
at ure
ou n
in ed
Ġe p
Ġl ike
al e
Ġs ing
Ġo b
ill ion
i er
iel d
p r
e k
Ġinclud ing
t ing
ver n
Ġm on
Ġap pe
c ess
ĠAmeric an
Ġc ar
