{
  "version": "1.0",
  "truncation": null,
  "padding": null,
  "added_tokens": [
    {
      "id": 0,
      "content": "<BOS>",
      "single_word": false,
      "lstrip": false,
      "rstrip": false,
      "normalized": false,
      "special": true
    },
    {
      "id": 1,
      "content": "<EOS>",
      "single_word": false,
      "lstrip": false,
      "rstrip": false,
      "normalized": false,
      "special": true
    },
    {
      "id": 2,
      "content": "<USER>",
      "single_word": false,
      "lstrip": false,
      "rstrip": false,
      "normalized": false,
      "special": true
    },
    {
      "id": 3,
      "content": "<ASSISTANT>",
      "single_word": false,
      "lstrip": false,
      "rstrip": false,
      "normalized": false,
      "special": true
    },
    {
      "id": 4,
      "content": "<EOT>",
      "single_word": false,
      "lstrip": false,
      "rstrip": false,
      "normalized": false,
      "special": true
    }
  ],
  "normalizer": null,
  "pre_tokenizer": {
    "type": "ByteLevel",
    "add_prefix_space": false,
    "trim_offsets": true,
    "use_regex": true
  },
  "post_processor": null,
  "decoder": {
    "type": "ByteLevel",
    "add_prefix_space": true,
    "trim_offsets": true,
    "use_regex": true
  },
  "model": {
    "type": "BPE",
    "dropout": null,
    "unk_token": null,
    "continuing_subword_prefix": null,
    "end_of_word_suffix": null,
    "fuse_unk": false,
    "byte_fallback": false,
    "ignore_merges": false,
    "vocab": {
      "<BOS>": 0,
      "<EOS>": 1,
      "<USER>": 2,
      "<ASSISTANT>": 3,
      "<EOT>": 4,
      "!": 5,
      "\"": 6,
      "#": 7,
      "$": 8,
      "%": 9,
      "&": 10,
      "'": 11,
      "(": 12,
      ")": 13,
      "*": 14,
      "+": 15,
      ",": 16,
      "-": 17,
      ".": 18,
      "/": 19,
      "0": 20,
      "1": 21,
      "2": 22,
      "3": 23,
      "4": 24,
      "5": 25,
      "6": 26,
      "7": 27,
      "8": 28,
      "9": 29,
      ":": 30,
      ";": 31,
      "<": 32,
      "=": 33,
      ">": 34,
      "?": 35,
      "@": 36,
      "A": 37,
      "B": 38,
      "C": 39,
      "D": 40,
      "E": 41,
      "F": 42,
      "G": 43,
      "H": 44,
      "I": 45,
      "J": 46,
      "K": 47,
      "L": 48,
      "M": 49,
      "N": 50,
      "O": 51,
      "P": 52,
      "Q": 53,
      "R": 54,
      "S": 55,
      "T": 56,
      "U": 57,
      "V": 58,
      "W": 59,
      "X": 60,
      "Y": 61,
      "Z": 62,
      "[": 63,
      "\\": 64,
      "]": 65,
      "^": 66,
      "_": 67,
      "`": 68,
      "a": 69,
      "b": 70,
      "c": 71,
      "d": 72,
      "e": 73,
      "f": 74,
      "g": 75,
      "h": 76,
      "i": 77,
      "j": 78,
      "k": 79,
      "l": 80,
      "m": 81,
      "n": 82,
      "o": 83,
      "p": 84,
      "q": 85,
      "r": 86,
      "s": 87,
      "t": 88,
      "u": 89,
      "v": 90,
      "w": 91,
      "x": 92,
      "y": 93,
      "z": 94,
      "{": 95,
      "|": 96,
      "}": 97,
      "~": 98,
      "Â¡": 99,
      "Â¢": 100,
      "Â£": 101,
      "Â¤": 102,
      "Â¥": 103,
      "Â¦": 104,
      "Â§": 105,
      "Â¨": 106,
      "Â©": 107,
      "Âª": 108,
      "Â«": 109,
      "Â¬": 110,
      "Â®": 111,
      "Â¯": 112,
      "Â°": 113,
      "Â±": 114,
      "Â²": 115,
      "Â³": 116,
      "Â´": 117,
      "Âµ": 118,
      "Â¶": 119,
      "Â·": 120,
      "Â¸": 121,
      "Â¹": 122,
      "Âº": 123,
      "Â»": 124,
      "Â¼": 125,
      "Â½": 126,
      "Â¾": 127,
      "Â¿": 128,
      "Ã€": 129,
      "Ã": 130,
      "Ã‚": 131,
      "Ãƒ": 132,
      "Ã„": 133,
      "Ã…": 134,
      "Ã†": 135,
      "Ã‡": 136,
      "Ãˆ": 137,
      "Ã‰": 138,
      "ÃŠ": 139,
      "Ã‹": 140,
      "ÃŒ": 141,
      "Ã": 142,
      "ÃŽ": 143,
      "Ã": 144,
      "Ã": 145,
      "Ã‘": 146,
      "Ã’": 147,
      "Ã“": 148,
      "Ã”": 149,
      "Ã•": 150,
      "Ã–": 151,
      "Ã—": 152,
      "Ã˜": 153,
      "Ã™": 154,
      "Ãš": 155,
      "Ã›": 156,
      "Ãœ": 157,
      "Ã": 158,
      "Ãž": 159,
      "ÃŸ": 160,
      "Ã ": 161,
      "Ã¡": 162,
      "Ã¢": 163,
      "Ã£": 164,
      "Ã¤": 165,
      "Ã¥": 166,
      "Ã¦": 167,
      "Ã§": 168,
      "Ã¨": 169,
      "Ã©": 170,
      "Ãª": 171,
      "Ã«": 172,
      "Ã¬": 173,
      "Ã­": 174,
      "Ã®": 175,
      "Ã¯": 176,
      "Ã°": 177,
      "Ã±": 178,
      "Ã²": 179,
      "Ã³": 180,
      "Ã´": 181,
      "Ãµ": 182,
      "Ã¶": 183,
      "Ã·": 184,
      "Ã¸": 185,
      "Ã¹": 186,
      "Ãº": 187,
      "Ã»": 188,
      "Ã¼": 189,
      "Ã½": 190,
      "Ã¾": 191,
      "Ã¿": 192,
      "Ä€": 193,
      "Ä": 194,
      "Ä‚": 195,
      "Äƒ": 196,
      "Ä„": 197,
      "Ä…": 198,
      "Ä†": 199,
      "Ä‡": 200,
      "Äˆ": 201,
      "Ä‰": 202,
      "ÄŠ": 203,
      "Ä‹": 204,
      "ÄŒ": 205,
      "Ä": 206,
      "ÄŽ": 207,
      "Ä": 208,
      "Ä": 209,
      "Ä‘": 210,
      "Ä’": 211,
      "Ä“": 212,
      "Ä”": 213,
      "Ä•": 214,
      "Ä–": 215,
      "Ä—": 216,
      "Ä˜": 217,
      "Ä™": 218,
      "Äš": 219,
      "Ä›": 220,
      "Äœ": 221,
      "Ä": 222,
      "Äž": 223,
      "ÄŸ": 224,
      "Ä ": 225,
      "Ä¡": 226,
      "Ä¢": 227,
      "Ä£": 228,
      "Ä¤": 229,
      "Ä¥": 230,
      "Ä¦": 231,
      "Ä§": 232,
      "Ä¨": 233,
      "Ä©": 234,
      "Äª": 235,
      "Ä«": 236,
      "Ä¬": 237,
      "Ä­": 238,
      "Ä®": 239,
      "Ä¯": 240,
      "Ä°": 241,
      "Ä±": 242,
      "Ä²": 243,
      "Ä³": 244,
      "Ä´": 245,
      "Äµ": 246,
      "Ä¶": 247,
      "Ä·": 248,
      "Ä¸": 249,
      "Ä¹": 250,
      "Äº": 251,
      "Ä»": 252,
      "Ä¼": 253,
      "Ä½": 254,
      "Ä¾": 255,
      "Ä¿": 256,
      "Å€": 257,
      "Å": 258,
      "Å‚": 259,
      "Åƒ": 260,
      "Ä t": 261,
      "he": 262,
      "Ä a": 263,
      "in": 264,
      "Ä the": 265,
      "er": 266,
      "on": 267,
      "re": 268,
      "Ä s": 269,
      "at": 270,
      "Ä o": 271,
      "Ä w": 272,
      "ed": 273,
      "nd": 274,
      "Ä ,": 275,
      "Ä c": 276,
      "or": 277,
      "en": 278,
      "es": 279,
      "it": 280,
      "is": 281,
      "an": 282,
      "Ä f": 283,
      "ar": 284,
      "Ä b": 285,
      "Ä of": 286,
      "al": 287,
      "Ä in": 288,
      "Ä p": 289,
      "ing": 290,
      "Ä .": 291,
      "as": 292,
      "Ä and": 293,
      "Ä m": 294,
      "Ä to": 295,
      "ic": 296,
      "ou": 297,
      "EO": 298,
      "Ä d": 299,
      "ion": 300,
      "le": 301,
      "Ä h": 302,
      "ro": 303,
      "EOT": 304,
      "Ä re": 305,
      "ent": 306,
      "il": 307,
      "Ä T": 308,
      "Ä S": 309,
      "st": 310,
      "Ä th": 311,
      "Ä l": 312,
      "el": 313,
      "om": 314,
      "Ä e": 315,
      "Ä A": 316,
      "am": 317,
      "Ä n": 318,
      "ct": 319,
      "Ä 1": 320,
      "Ä C": 321,
      "id": 322,
      "Ä \"": 323,
      "ad": 324,
      "et": 325,
      "Ä was": 326,
      "Ä g": 327,
      "ol": 328,
      "ur": 329,
      "Ä on": 330,
      "Ä M": 331,
      "im": 332,
      "ly": 333,
      "iv": 334,
      "ow": 335,
      "Ä for": 336,
      "ac": 337,
      "ig": 338,
      "us": 339,
      "Ä @": 340,
      "ir": 341,
      "Ä is": 342,
      "Ä B": 343,
      "Ä be": 344,
      "ot": 345,
      "Ä I": 346,
      "ut": 347,
      "US": 348,
      "Ä st": 349,
      "ay": 350,
      "Ä as": 351,
      "ation": 352,
      "ER": 353,
      "AS": 354,
      "ers": 355,
      "ST": 356,
      "USER": 357,
      "AN": 358,
      "SI": 359,
      "ANT": 360,
      "STANT": 361,
      "SISTANT": 362,
      "ASSISTANT": 363,
      "ith": 364,
      "OS": 365,
      "EOS": 366,
      "BOS": 367,
      "ce": 368,
      "Ä The": 369,
      "Ä HŠ: 370,
      "Ä '": 371,
      "Ä wh": 372,
      "ch": 373,
      "Ä that": 374,
      "her": 375,
      "Ä with": 376,
      "ter": 377,
      "Ä P": 378,
      "Ä 2": 379,
      "un": 380,
      "ul": 381,
      "-@": 382,
      "Ä @-@": 383,
      "ra": 384,
      "ver": 385,
      "em": 386,
      "Ä con": 387,
      "th": 388,
      "Ä R": 389,
      "Ä D": 390,
      "Ä al": 391,
      "Ä by": 392,
      "Ä an": 393,
      "os": 394,
      "Ä W": 395,
      "Ä F": 396,
      "Ä it": 397,
      "Ä (": 398,
      "um": 399,
      "ag": 400,
      "Ä G": 401,
      "est": 402,
      "Ä N": 403,
      "Ä at": 404,
      "and": 405,
      "Ä L": 406,
      "rom": 407,
      "av": 408,
      "od": 409,
      "ist": 410,
      "Ä he": 411,
      "pe": 412,
      "if": 413,
      "00": 414,
      "ain": 415,
      "Ä 19": 416,
      "Ä de": 417,
      "Ä v": 418,
      "Ä se": 419,
      "Ä r": 420,
      "Ä com": 421,
      "Ä E": 422,
      "Ä pro": 423,
      "Ä y": 424,
      "ri": 425,
      "Ä J": 426,
      "op": 427,
      "ld": 428,
      "Wh": 429,
      "Ä from": 430,
      "Ä )": 431,
      "ate": 432,
      "Ä or": 433,
      "Ä are": 434,
      "ill": 435,
      "ore": 436,
      "ies": 437,
      "ort": 438,
      "ich": 439,
      "igh": 440,
      "ak": 441,
      "res": 442,
      "Ä su": 443,
      "art": 444,
      "all": 445,
      "ab": 446,
      "Ä ex": 447,
      "oc": 448,
      "ity": 449,
      "qu": 450,
      "ew": 451,
      "ant": 452,
      "Ä hist": 453,
      "Ä O": 454,
      "ere": 455,
      "ess": 456,
      "ard": 457,
      "Ä ch": 458,
      "ive": 459,
      "Ä pl": 460,
      "our": 461,
      "ap": 462,
      "ud": 463,
      "ber": 464,
      "ame": 465,
      "se": 466,
      "ong": 467,
      "Ä were": 468,
      "ated": 469,
      "Ä sh": 470,
      "Ä k": 471,
      "What": 472,
      "te": 473,
      "gh": 474,
      "ip": 475,
      "ge": 476,
      "Ä le": 477,
      "Ä K": 478,
      "ment": 479,
      "rou": 480,
      "ial": 481,
      "ast": 482,
      "Ä which": 483,
      "ack": 484,
      "ian": 485,
      "ear": 486,
      "ia": 487,
      "ell": 488,
      "ov": 489,
      "ure": 490,
      "ost": 491,
      "nt": 492,
      "ight": 493,
      "Ä us": 494,
      "ave": 495,
      "ine": 496,
      "pt": 497,
      "Ä not": 498,
      "pp": 499,
      "Ä U": 500,
      "ical": 501,
      "Ã¢Ä¢": 502,
      "Ä In": 503,
      "ction": 504,
      "ther": 505,
      "ord": 506,
      "ust": 507,
      "Ä u": 508,
      "Ä had": 509,
      "ire": 510,
      "ary": 511,
      "rit": 512,
      "ould": 513,
      "Ä comp": 514,
      "Ä St": 515,
      "cl": 516,
      "hen": 517,
      "ide": 518,
      "ome": 519,
      "per": 520,
      "The": 521,
      "og": 522,
      "Ä un": 523,
      "ish": 524,
      "Ä£‹ˆˆè€ÔÈÔ°(€€€€€€‹ ˆè€ÔÈØ°(€€€€€€‰½ÕÌˆè€ÔÈÜ°(€€€€€€‰Õ”ˆè€ÔÈà°(€€€€€€‰¥ÉÍÐˆè€ÔÈä°(€€€€€€‰Œˆè€ÔÌÀ°(€€€€€€‰¥”ˆè€ÔÌÄ°(€€€€€€‰…”ˆè€ÔÌÈ°(€€€€€€‹€Ìˆè€ÔÌÌ°(€€€€€€‰…É”ˆè€ÔÌÐ°(€€€€€€‰Éäˆè€ÔÌÔ°(€€€€€€‰½ÕÐˆè€ÔÌØ°(€€€€€€‰…ÍÌˆè€ÔÌÜ°(€€€€€€‹¡…Ù”ˆè€ÔÌà°(€€€€€€‰™˜ˆè€ÔÌä°(€€€€€€‰Í¼ˆè€ÔÐÀ°(€€€€€€‹…ˆˆè€ÔÐÄ°(€€€€€€‹½¹Ðˆè€ÔÐÈ°(€€€€€€‹Ñ¡•¥Èˆè€ÔÐÌ°(€€€€€€‰Õˆˆè€ÔÐÐ°(€€€€€€‰É…¸ˆè€ÔÐÔ°(€€€€€€‹€ÈÀˆè€ÔÐØ°(€€€€€€‰½É¬ˆè€ÔÐÜ°(€€€€€€‹°ˆè€ÔÐà°(€€€€€€‰¥èˆè€ÔÐä°(€€€€€€‰½¬ˆè€ÔÔÀ°(€€€€€€‹‰ÕÐˆè€ÔÔÄ°(€€€€€€‹Xˆè€ÔÔÈ°(€€€€€€‹¥¹Ðˆè€ÔÔÌ°(€€€€€€‹™¥ÉÍÐˆè€ÔÔÐ°(€€€€€€‰Á°ˆè€ÔÔÔ°(€€€€€€‹…Èˆè€ÔÔØ°(€€€€€€‹…ˆè€ÔÔÜ°(€€€€€€‹µ…¸ˆè€ÔÔà°(€€€€€€‰µ•Èˆè€ÔÔä°(€€€€€€‹…¸ˆè€ÔØÀ°(€€€€€€‰ÉÔˆè€ÔØÄ°(€€€€€€‰¥Ñ¥½¸ˆè€ÔØÈ°(€€€€€€‰•Ðˆè€ÔØÌ°(€€€€€€‹€ÈÀÀˆè€ÔØÐ°(€€€€€€‹Ñ”ˆè€ÔØÔ°(€€€€€€‰¥¸ˆè€ÔØØ°(€€€€€€‰½É´ˆè€ÔØÜ°(€€€€€€‹¥ÑÌˆè€ÔØà°(€€€€€€‰™Ñ•Èˆè€ÔØä°(€€€€€€‰‘Ôˆè€ÔÜÀ°(€€€€€€‰¥µ”ˆè€ÔÜÄ°(€€€€€€‰…Ñ•Èˆè€ÔÜÈ°(€€€€€€‹Á•Èˆè€ÔÜÌ°(€€€€€€‰Ý¼ˆè€ÔÜÐ°(€€€€€€‰±½Üˆè€ÔÜÔ°(€€€€€€‰Õ±Ðˆè€ÔÜØ°(€€€€€€‹…±Í¼ˆè€ÔÜÜ°(€€€€€€‹•¸ˆè€ÔÜà°(€€€€€€‹É•Ìˆè€ÔÜä°(€€€€€€‹¡…Ìˆè€ÔàÀ°(€€€€€€‰½¹ˆè€ÔàÄ°(€€€€€€‰•¹”ˆè€ÔàÈ°(€€€€€€‰…Ðˆè€ÔàÌ°(€€€€€€‰…±±äˆè€ÔàÐ°(€€€€€€‹å½Ôˆè€ÔàÔ°(€€€€€€‰­”ˆè€ÔàØ°(€€€€€€‹½¹”ˆè€ÔàÜ°(€€€€€€‰½Ý¸ˆè€Ôàà°(€€€€€€‹ÍŒˆè€Ôàä°(€€€€€€‰É•”ˆè€ÔäÀ°(€€€€€€‹‘¥ˆè€ÔäÄ°(€€€€€€‰… ˆè€ÔäÈ°(€€€€€€‹å•…Èˆè€ÔäÌ°(€€€€€€‰¥±”ˆè€ÔäÐ°(€€€€€€‹¥´ˆè€ÔäÔ°(€€€€€€‰¥ˆˆè€ÔäØ°(€€€€€€‰½Õ¹Ðˆè€ÔäÜ°(€€€€€€ˆÌˆè€Ôäà°(€€€€€€‰…Ñ¥½¹Ìˆè€Ôää°(€€€€€€‰½Õ¹ˆè€ØÀÀ°(€€€€€€‹¡•Èˆè€ØÀÄ°(€€€€€€‰¡•ˆè€ØÀÈ°(€€€€€€‰¥”ˆè€ØÀÌ°(€€€€€€‹Ñ¡¥Ìˆè€ØÀÐ°(€€€€€€‹!”ˆè€ØÀÔ°(€€€€€€‹Ý¡¼ˆè€ØÀØ°(€€€€€€‹É•Œˆè€ØÀÜ°(€€€€€€‹¹”ˆè€ØÀà°(€€€€€€‹Q ˆè€ØÀä°(€€€€€€‹½Ñ¡•Èˆè€ØÄÀ°(€€€€€€‰™•Èˆè€ØÄÄ°(€€€€€€‹Á…ÉÐˆè€ØÄÈ°(€€€€€€‰…”ˆè€ØÄÌ°(€€€€€€‹%Ðˆè€ØÄÐ°(€€€€€€‹¨ˆè€ØÄÔ°(€€€€€€‰É¥Œˆè€ØÄØ°(€€€€€€‹‘¥Ìˆè€ØÄÜ°(€€€€€€‹‘¼ˆè€ØÄà°(€€€€€€‰ÕÉ¥¹œˆè€ØÄä°(€€€€€€‰•±äˆè€ØÈÀ°(€€€€€€‹É¼ˆè€ØÈÄ°(€€€€€€‹Á±…äˆè€ØÈÈ°(€€€€€€‰½Éäˆè€ØÈÌ°(€€€€€€‹¼ˆè€ØÈÐ°(€€€€€€‹‰•Œˆè€ØÈÔ°(€€€€€€‹ÑÝ¼ˆè€ØÈØ°(€€€€€€‹€Ðˆè€ØÈÜ°(€€€€€€‰¥¹ˆè€ØÈà°(€€€€€€‰Á½ÉÐˆè€ØÈä°(€€€€€€‹€ìˆè€ØÌÀ°(€€€€€€‰…¹œˆè€ØÌÄ°(€€€€€€‰±…¹ˆè€ØÌÈ°(€€€€€€‰±Õˆè€ØÌÌ°(€€€€€€‹€Äàˆè€ØÌÐ°(€€€€€€‹€Ôˆè€ØÌÔ°(€€€€€€‹Í•Èˆè€ØÌØ°(€€€€€€‹½ÕÐˆè€ØÌÜ°(€€€€€€‰¥½¹Ìˆè€ØÌà°(€€€€€€‰½Õ ˆè€ØÌä°(€€€€€€‹Ý¡…Ðˆè€ØÐÀ°(€€€€€€‹Ñ¡•äˆè€ØÐÄ°(€€€€€€‹Œ:,J,[R#¢cC"À¢,J&R#¢cC2À¢&æ6R#¢cCBÀ¢&&²#¢cCRÀ¢,J##¢cCbÀ¢,J&VVâ#¢cCrÀ¢,JFW2#¢cC‚À¢,J’#¢cC’À¢'fVÂ#¢cSÀ¢,Jr#¢cSÀ¢'‚#¢cS"À¢,JvR#¢cS2À¢,JÖR#¢cSBÀ¢,J÷fW"#¢cSRÀ¢&†W&R#¢cSbÀ¢&Vç2#¢cSrÀ¢&öæR#¢cS‚À¢,J¢#¢cS’À¢&&ÆR#¢ccÀ¢&FW2#¢ccÀ¢&FR#¢cc"À¢&6R#¢cc2À¢,J7R#¢ccBÀ¢,JÂ#¢ccRÀ¢,JF–ÖR#¢ccbÀ¢&÷'2#¢ccrÀ¢&¶R#¢cc‚À¢,JW#¢cc’À¢&ær#¢csÀ¢'&W72#¢csÀ¢,J–æ6ÇVB#¢cs"À¢,JÖ÷&R#¢cs2À¢&Öâ#¢csBÀ¢'vR#¢csRÀ¢,JVâ#¢csbÀ¢,J7#¢csrÀ¢'vâ#¢cs‚À¢&æFW"#¢cs’À¢,JgFW"#¢cƒÀ¢,Jv÷VÆB#¢cƒÀ¢&—FR#¢cƒ"À¢,JÆÂ#¢cƒ2À¢,J–çFò#¢cƒBÀ¢&6VB#¢cƒRÀ¢&6VB#¢cƒbÀ¢'fR#¢cƒrÀ¢,J6öÖÒ#¢cƒ‚À¢&ÆW2#¢cƒ’À¢&–çB#¢c“À¢'W&â#¢c“À¢'FW&â#¢c“"À¢"ä#¢c“2À¢,J ¹ ˆè€ØäÐ°(€€€€€€‰…µÀˆè€ØäÔ°(€€€€€€‰½Í”ˆè€ØäØ°(€€€€€€‰¥±ˆè€ØäÜ°(€€€€€€‰¥Ñ•ˆè€Øäà°(€€€€€€‹•Øˆè€Øää°(€€€€€€‰•Ìˆè€ÜÀÀ°(€€€€€€‰¥¹Ìˆè€ÜÀÄ°(€€€€€€‰™½É´ˆè€ÜÀÈ°(€€€€€€‰½¹Ìˆè€ÜÀÌ°(€€€€€€‰¹”ˆè€ÜÀÐ°(€€€€€€‰•¹ÑÌˆè€ÜÀÔ°(€€€€€€‹Ý½É¬ˆè€ÜÀØ°(€€€€€€‹½™˜ˆè€ÜÀÜ°(€€€€€€‰É•…Ðˆè€ÜÀà°(€€€€€€‰%¸ˆè€ÜÀä°(€€€€€€‰…¥°ˆè€ÜÄÀ°(€€€€€€‹‰•Ðˆè€ÜÄÄ°(€€€€€€‹¼ˆè€ÜÄÈ°(€€€€€€‹µ½ÍÐˆè€ÜÄÌ°(€€€€€€ˆ± ˆè€ÜÄÐ°(€€€€€€‹ ± ˆè€ÜÄÔ°(€€€€€€‹Ý¡•¸ˆè€ÜÄØ°(€€€€€€‰É½Õ ˆè€ÜÄÜ°(€€€€€€‰½±ˆè€ÜÄà°(€€€€€€‰…ÕÌˆè€ÜÄä°(€€€€€€‰™Ðˆè€ÜÈÀ°(€€€€€€‰½äˆè€ÜÈÄ°(€€€€€€‰Ý…Éˆè€ÜÈÈ°(€€€€€€‰¥•ˆè€ÜÈÌ°(€€€€€€‹M”ˆè€ÜÈÐ°(€€€€€€‹…ÑÐˆè€ÜÈÔ°(€€€€€€‰…¹Ìˆè€ÜÈØ°(€€€€€€‹½¹Ìˆè€ÜÈÜ°(€€€€€€‰¥¬ˆè€ÜÈà°(€€€€€€‰áÐˆè€ÜÈä°(€€€€€€‹™”ˆè€ÜÌÀ°(€€€€€€‹­¸ˆè€ÜÌÄ°(€€€€€€‰½É±ˆè€ÜÌÈ°(€€€€€€‹µ…¹äˆè€ÜÌÌ°(€€€€€€‹¹•Üˆè€ÜÌÐ°(€€€€€€‹I”ˆè€ÜÌÔ°(€€€€€€‹…‰½ÕÐˆè€ÜÌØ°(€€€€€€‰…Üˆè€ÜÌÜ°(€€€€€€‰¥Ðˆè€ÜÌà°(€€€€€€‹Á”ˆè€ÜÌä°(€€€€€€‰…±Ìˆè€ÜÐÀ°(€€€€€€‹€Øˆè€ÜÐÄ°(€€€€€€‰É¥ˆˆè€ÜÐÈ°(€€€€€€‹ÑÈˆè€ÜÐÌ°(€€€€€€‹Ñ¡•´ˆè€ÜÐÐ°(€€€€€€‹Í¡”ˆè€ÜÐÔ°(€€€€€€‹Í•Œˆè€ÜÐØ°(€€€€€€‰¥½ÕÌˆè€ÜÐÜ°(€€€€€€‹•¹Ðˆè€ÜÐà°(€€€€€€‹Í½µ”ˆè€ÜÐä°(€€€€€€‹¡¥´ˆè€ÜÔÀ°(€€€€€€‹Í¼ˆè€ÜÔÄ°(€€€€€€‰¥ÍÌˆè€ÜÔÈ°(€€€€€€‹ÅÔˆè€ÜÔÌ°(€€€€€€‰½½ˆè€ÜÔÐ°(€€€€€€‰Õ‰°ˆè€ÜÔÔ°(€€€€€€‰…ÑÐˆè€ÜÔØ°(€€€€€€‰Ý••¸ˆè€ÜÔÜ°(€€€€€€‹…µ”ˆè€ÜÔà°(€€€€€€‰…¸ˆè€ÜÔä°(€€€€€€‰½ˆˆè€ÜØÀ°(€€€€€€‰…Ñ¥½¹…°ˆè€ÜØÄ°(€€€€€€‰¬ˆè€ÜØÈ°(€€€€€€‰É½Õ¹ˆè€ÜØÌ°(€€€€€€‰•µ‰•Èˆè€ÜØÐ°(€€€€€€‹Ñ¡…¸ˆè€ÜØÔ°(€€€€€€‹½°ˆè€ÜØØ°(€€€€€€‹ÕÍ•ˆè€ÜØÜ°(€€€€€€‹Íäˆè€ÜØà°(€€€€€€‰É•ˆè€ÜØä°(€€€€€€‰µ•É¥Œˆè€ÜÜÀ°(€€€€€€‰Ý…äˆè€ÜÜÄ°(€€€€€€‹ÁÉ½‘Ôˆè€ÜÜÈ°(€€€€€€‰…Ñ ˆè€ÜÜÌ°(€€€€€€‹‰Ôˆè€ÜÜÐ°(€€€€€€‹€Üˆè€ÜÜÔ°(€€€€€€‰¥­”ˆè€ÜÜØ°(€€€€€€‹‰•ÑÝ••¸ˆè€ÜÜÜ°(€€€€€€‹”ˆè€ÜÜà°(€€€€€€‰Õ±…Èˆè€ÜÜä°(€€€€€€‹…ÁÀˆè€ÜàÀ°(€€€€€€‰½Ñ ˆè€ÜàÄ°(€€€€€€‰½±±½Üˆè€ÜàÈ°(€€€€€€‹É•°ˆè€ÜàÌ°(€€€€€€‰¥±´ˆè€ÜàÐ°(€€€€€€‰Ù•ˆè€ÜàÔ°(€€€€€€‹‘ÕÉ¥¹œˆè€ÜàØ°(€€€€€€‰•É•ˆè€ÜàÜ°(€€€€€€‰É½¸ˆè€Üàà°(€€€€€€‹•…Èˆè€Üàä°(€€€€€€‰…Í½¸ˆè€ÜäÀ°(€€€€€€‹µ•É¥Œˆè€ÜäÄ°(€€€€€€‰ÍÌˆè€ÜäÈ°(€€€€€€‹É•´ˆè€ÜäÌ°(€€€€€€‰½½¬ˆè€ÜäÐ°(€€€€€€‰¥™¥Œˆè€ÜäÔ°(€€€€€€‹Õ¹‘•Èˆè€ÜäØ°(€€€€€€‰¹¥¹œˆè€ÜäÜ°(€€€€€€‰½ÉÑ ˆè€Üäà°(€€€€€€‰Õœˆè€Üää°(€€€€€€‹½¹±äˆè€àÀÀ°(€€€€€€‰¥¹…°ˆè€àÀÄ°(€€€€€€‹™½É´ˆè€àÀÈ°(€€€€€€‹¥¹Ñ•Èˆè€àÀÌ°(€€€€€€‹5…Èˆè€àÀÐ°(€€€€€€‰¡¥Àˆè€àÀÔ°(€€€€€€‹ÍÕ ˆè€àÀØ°(€€€€€€‰±•Ðˆè€àÀÜ°(€€€€€€‹Á¼ˆè€àÀà°(€€€€€€‹™°ˆè€àÀä°(€€€€€€‹€àˆè€àÄÀ°(€€€€€€‹Èˆè€àÄÄ°(€€€€€€‹¡…Èˆè€àÄÈ°(€€€€€€‹É•œˆè€àÄÌ°(€€€€€€‹•¸ˆè€àÄÐ°(€€€€€€‰½¬ˆè€àÄÔ°(€€€€€€‰¥àˆè€àÄØ°(€€€€€€‹¹Õ´ˆè€àÄÜ°(€€€€€€‰™½É”ˆè€àÄà°(€€€€€€‹…Œˆè€àÄä°(€€€€€€‹Ñ¡É½Õ ˆè€àÈÀ°(€€€€€€‹¥¹Œˆè€àÈÄ°(€€€€€€‰…Ñ¥¹œˆè€àÈÈ°(€€€€€€‹ÑÉ„ˆè€àÈÌ°(€€€€€€‰¥Ìˆè€àÈÐ°(€€€€€€‹ÍÁ•Œˆè€àÈÔ°(€€€€€€‹Ñ¡•É”ˆè€àÈØ°(€€€€€€‹…Ðˆè€àÈÜ°(€€€€€€‹9•Üˆè€àÈà°(€€€€€€‹…´ˆè€àÈä°(€€€€€€‰½ÕÑ ˆè€àÌÀ°(€€€€€€‹Ý¡•É”ˆè€àÌÄ°(€€€€€€‹Á½Ìˆè€àÌÈ°(€€€€€€‹±…Èˆè€àÌÌ°(€€€€€€‹ÁÈˆè€àÌÐ°(€€€€€€‰Ñ•ˆè€àÌÔ°(€€€€€€‹……¥¸ˆè€àÌØ°(€€€€€€‹¥¹ˆè€àÌÜ°(€€€€€€‰É…°ˆè€àÌà°(€€€€€€‹É„ˆè€àÌä°(€€€€€€‹•¹ˆè€àÐÀ°(€€€€€€‹€Äääˆè€àÐÄ°(€€€€€€‰Ù•Éäˆè€àÐÈ°(€€€€€€‹Í½¹œˆè€àÐÌ°(€€€€€€‹€äˆè€àÐÐ°(€€€€€€‹É•±”ˆè€àÐÔ°(€€€€€€ˆÀÀÀˆè€àÐØ°(€€€€€€‹‘…äˆè€àÐÜ°(€€€€€€‰…µ•Ìˆè€àÐà°(€€€€€€‹É•Ðˆè€àÐä°(€€€€€€‹Ñ¡É•”ˆè€àÔÀ°(€€€€€€‰É•¸ˆè€àÔÄ°(€€€€€€‹™¥±´ˆè€àÔÈ°(€€€€€€‹…ÍÌˆè€àÔÌ°(€€€€€€‰¥•Üˆè€àÔÐ°(€€€€€€‰½ ˆè€àÔÔ°(€€€€€€‹µ½Øˆè€àÔØ°(€€€€€€‹…±°ˆè€àÔÜ°(€€€€€€‹ÍÕˆˆè€àÔà°(€€€€€€‹™½±±½Üˆè€àÔä°(€€€€€€‰Õ…°ˆè€àØÀ°(€€€€€€‰Ñ•¸ˆè€àØÄ°(€€€€€€‹±½Œˆè€àØÈ°(€€€€€€‹Ý¡¥±”ˆè€àØÌ°(€€€€€€‹µ…‘”ˆè€àØÐ°(€€€€€€‰É…¹Ìˆè€àØÔ°(€€€€€€‹Q¡¥Ìˆè€àØØ°(€€€€€€‹‘¥˜ˆè€àØÜ°(€€€€€€‹1”ˆè€àØà°(€€€€€€‰¥¹Ìˆè€àØä°(€€€€€€‰½Á±”ˆè€àÜÀ°(€€€€€€‰±°ˆè€àÜÄ°(€€€€€€‰¡•Ìˆè€àÜÈ°(€€€€€€‹‘•˜ˆè€àÜÌ°(€€€€€€‰…ÉÌˆè€àÜÐ°(€€€€€€‹¥¹Øˆè€àÜÔ°(€€€€€€‹µÕÌˆè€àÜØ°(€€€€€€‹ÝÉ¥Ðˆè€àÜÜ°(€€€€€€‰•Ù•Èˆè€àÜà°(€€€€€€‰•¹ˆè€àÜä°(€€€€€€‰¥•°ˆè€ààÀ°(€€€€€€‰ÕÉäˆè€ààÄ°(€€€€€€‹Ñ•…´ˆè€ààÈ°(€€€€€€‰½‘”ˆè€ààÌ°(€€€€€€‹å½ÕÈˆè€ààÐ°(€€€€€€‰½Ý•Èˆè€ààÔ°(€€€€€€‹ÕÍ”ˆè€ààØ°(€€€€€€‰¥Ù•ÉÌˆè€ààÜ°(€€€€€€‰Á•¸ˆè€ààà°(€€€€€€‰¥¼ˆè€ààä°(€€€€€€‰ÁÌˆè€àäÀ°(€€€€€€‰¥Ñ¥•Ìˆè€àäÄ°(€€€€€€‰•É´ˆè€àäÈ°(€€€€€€‰ÑÌˆè€àäÌ°(€€€€€€‹…Œˆè€àäÐ°(€€€€€€‰Ù•±½Àˆè€àäÔ°(€€€€€€‹±…Ñ•Èˆè€àäØ°(€€€€€€‰É…´ˆè€àäÜ°(€€€€€€‹å•…ÉÌˆè€àäà°(€€€€€€‹Í•½¹ˆè€àää°(€€€€€€‰©•Ðˆè€äÀÀ°(€€€€€€‹É•½Éˆè€äÀÄ°(€€€€€€‰¥Í¡•ˆè€äÀÈ°(€€€€€€‹…Àˆè€äÀÌ°(€€€€€€‰!½Üˆè€äÀÐ°(€€€€€€‰½±½œˆè€äÀÔ°(€€€€€€‹Í•Ðˆè€äÀØ°(€€€€€€‹É”ˆè€äÀÜ°(€€€€€€‰ÍÑ•´ˆè€äÀà°(€€€€€€‰¥¹•Ìˆè€äÀä°(€€€€€€‹¡¥ ˆè€äÄÀ°(€€€€€€‰¥‘•¹Ðˆè€äÄÄ°(€€€€€€‹…‘ˆè€äÄÈ°(€€€€€€‹½´ˆè€äÄÌ°(€€€€€€‹Á½Àˆè€äÄÐ°(€€€€€€‹‰°ˆè€äÄÔ°(€€€€€€‰½½°ˆè€äÄØ°(€€€€€€‹Á½°ˆè€äÄÜ°(€€€€€€‰½É¸ˆè€äÄà°(€€€€€€‰¥±äˆè€äÄä°(€€€€€€‰Ñ½¸ˆè€äÈÀ°(€€€€€€‰…ÕÍ”ˆè€äÈÄ°(€€€€€€‹ÁÕ‰°ˆè€äÈÈ°(€€€€€€‰¥Í”ˆè€äÈÌ°(€€€€€€‰…¹¬ˆè€äÈÐ°(€€€€€€‹ÍÕÁÀˆè€äÈÔ°(€€€€€€‹¡½Üˆè€äÈØ°(€€€€€€‹™½Õ¹ˆè€äÈÜ°(€€€€€€‹Í•…Í½¸ˆè€äÈà°(€€€€€€‰¥¬ˆè€äÈä°(€€€€€€‹‰•¥¹œˆè€äÌÀ°(€€€€€€‰¥Í¥½¸ˆè€äÌÄ°(€€€€€€‹•´ˆè€äÌÈ°(€€€€€€‹‰•™½É”ˆè€äÌÌ°(€€€€€€‰¥Ù•ˆè€äÌÐ°(€€€€€€‹ÍÕÈˆè€äÌÔ°(€€€€€€‰Ñ…¥¸ˆè€äÌØ°(€€€€€€‹™½ÕÈˆè€äÌÜ°(€€€€€€‹¥µÀˆè€äÌà°(€€€€€€‹€•¹Ðˆè€äÌä°(€€€€€€‹µ•Ðˆè€äÐÀ°(€€€€€€‹‘•Œˆè€äÐÄ°(€€€€€€‰ÕÉ•Ìˆè€äÐÈ°(€€€€€€‹Ñäˆè€äÐÌ°(€€€€€€‹Á•½Á±”ˆè€äÐÐ°(€€€€€€‹€ÄÀˆè€äÐÔ°(€€€€€€‹Ý¥±°ˆè€äÐØ°(€€€€€€‰¥ÑÌˆè€äÐÜ°(€€€€€€‰…¥ˆè€äÐà°(€€€€€€‰…¨ˆè€äÐä°(€€€€€€‰…Ñ¡•Èˆè€äÔÀ°(€€€€€€‰½Ñ¡•Èˆè€äÔÄ°(€€€€€€‰…Ôˆè€äÔÈ°(€€€€€€‰…¹äˆè€äÔÌ°(€€€€€€‹ÁÉ½Øˆè€äÔÐ°(€€€€€€‹‘•Ù•±½Àˆè€äÔÔ°(€€€€€€‹ÁÉ•Ìˆè€äÔØ°(€€€€€€‹¹¼ˆè€äÔÜ°(€€€€€€‹½Õ±ˆè€äÔà°(€€€€€€‹Ñ¡•¸ˆè€äÔä°(€€€€€€‹…¹äˆè€äØÀ°(€€€€€€‹±½¹œˆè€äØÄ°(€€€€€€‰™Õ°ˆè€äØÈ°(€€€€€€‹U¹¥Ñ•ˆè€äØÌ°(€€€€€€‰Õ ˆè€äØÐ°(€€€€€€‹ÑÉ…¹Ìˆè€äØÔ°(€€€€€€‹¹Õµ‰•Èˆè€äØØ°(€€€€€€‹­¹½Ý¸ˆè€äØÜ°(€€€€€€‰]¡¼ˆè€äØà°(€€€€€€‹½Õ¹Ðˆè€äØä°(€€€€€€‹…Àˆè€äÜÀ°(€€€€€€‰¥•Ðˆè€äÜÄ°(€€€€€€‹µ…¥¸ˆè€äÜÈ°(€€€€€€‰¥¹”ˆè€äÜÌ°(€€€€€€‹±•…ˆè€äÜÐ°(€€€€€€‰¥™”ˆè€äÜÔ°(€€€€€€‰•µ•¹Ðˆè€äÜØ°(€€€€€€‹¥¹ÍÐˆè€äÜÜ°(€€€€€€‹Ý•±°ˆè€äÜà°(€€€€€€‹€¼ˆè€äÜä°(€€€€€€‰‰Õ´ˆè€äàÀ°(€€€€€€‰•äˆè€äàÄ°(€€€€€€‰É½Üˆè€äàÈ°(€€€€€€‹ÍÑÕˆè€äàÌ°(€€€€€€‹Á ˆè€äàÐ°(€€€€€€‹µ½ˆè€äàÔ°(€€€€€€‰•Àˆè€äàØ°(€€€€€€‹µ…äˆè€äàÜ°(€€€€€€‹‰…¬ˆè€äàà°(€€€€€€‹M ˆè€äàä°(€€€€€€‰…Ñ¥Ù”ˆè€ääÀ°(€€€€€€‹¡…É…Ðˆè€ääÄ°(€€€€€€‹ÍåÍÑ•´ˆè€ääÈ°(€€€€€€‹Ìˆè€ääÌ°(€€€€€€‰¥Ù•Èˆè€ääÐ°(€€€€€€‹Í´ˆè€ääÔ°(€€€€€€‹€Àˆè€ääØ°(€€€€€€‰•É…°ˆè€ääÜ°(€€€€€€‰…¥Èˆè€ääà°(€€€€€€‹¹œˆè€äää°(€€€€€€‰¥Í´ˆè€ÄÀÀÀ°(€€€€€€‰•±˜ˆè€ÄÀÀÄ°(€€€€€€‹	É¥Ðˆè€ÄÀÀÈ°(€€€€€€‰…ÑÕÉ”ˆè€ÄÀÀÌ°(€€€€€€‰½Õ¸ˆè€ÄÀÀÐ°(€€€€€€‰¥¹•ˆè€ÄÀÀÔ°(€€€€€€‹”ˆè€ÄÀÀØ°(€€€€€€‹±¥­”ˆè€ÄÀÀÜ°(€€€€€€‰…±”ˆè€ÄÀÀà°(€€€€€€‹Í¥¹œˆè€ÄÀÀä°(€€€€€€‹½ˆˆè€ÄÀÄÀ°(€€€€€€‰¥±±¥½¸ˆè€ÄÀÄÄ°(€€€€€€‰¥•Èˆè€ÄÀÄÈ°(€€€€€€‰¥•±ˆè€ÄÀÄÌ°(€€€€€€‰ÁÈˆè€ÄÀÄÐ°(€€€€€€‰•¬ˆè€ÄÀÄÔ°(€€€€€€‹¥¹±Õ‘¥¹œˆè€ÄÀÄØ°(€€€€€€‰Ñ¥¹œˆè€ÄÀÄÜ°(€€€€€€‰Ù•É¸ˆè€ÄÀÄà°(€€€€€€‹µ½¸ˆè€ÄÀÄä°(€€€€€€‹…ÁÁ”ˆè€ÄÀÈÀ°(€€€€€€‰•ÍÌˆè€ÄÀÈÄ°(€€€€€€‹µ•É¥…¸ˆè€ÄÀÈÈ°(€€€€€€‹…Èˆè€ÄÀÈÌ(€€€ô°(€€€€‰µ•É•Ìˆèl(€€€€€l(€€€€€€€€‹€ˆ°(€€€€€€€€‰Ðˆ(€€€€€t°(€€€€€l(€€€€€€€€‰ ˆ°(€€€€€€€€‰”ˆ(€€€€€t°(€€€€€l(€€€€€€€€‹€€ˆ°(€€€€€€€€‰„ˆ(€€€€€t°(€€€€€l(€€€€€€€€‰¤ˆ°(€€€€€€€€‰¸ˆ(€€€€€t°(€€€€€l(€€€€€€€€‹Ðˆ°(€€€€€€€€‰¡”ˆ(€€€€€t°(€€€€€l(€€€€€€€€‰”ˆ°(€€€€€€€€‰Èˆ(€€€€€t°(€€€€€l(€€€€€€€€‰¼ˆ°(€€€€€€€€‰¸ˆ(€€€€€t°(€€€€€l(€€€€€€€€‰Èˆ°(€€€€€€€€‰”ˆ(€€€€€t°(€€€€€l(€€€€€€€€‹€ˆ°(€€€€€€€€‰Ìˆ(€€€€€t°(€€€€€l(€€€€€€€€‰„ˆ°(€€€€€€€€‰Ðˆ(€€€€€t°(€€€€€l(€€€€€€€€‹€€ˆ°(€€€€€€€€‰¼ˆ(€€€€€t°(€€€€€l(€€€€€€€€‹€ˆ°(€€€€€€€€‰Üˆ(€€€€€t°(€€€€€l(€€€€€€€€‰”ˆ°(€€€€€€€€‰ˆ(€€€€€t°(€€€€€l(€€€€€€€€‰¸ˆ°(€€€€€€€€‰ˆ(€€€€€t°(€€€€€l(€€€€€€€€‹€€ˆ°(€€€€€€€€ˆ°ˆ(€€€€€t°(€€€€€l(€€€€€€€€‹€ˆ°(€€€€€€€€‰Œˆ(€€€€€t°(€€€€€l(€€€€€€€€‰¼ˆ°(€€€€€€€€‰Èˆ(€€€€€t°(€€€€€l(€€€€€€€€‰”ˆ°(€€€€€€€€‰¸ˆ(€€€€€t°(€€€€€l(€€€€€€€€‰”ˆ°(€€€€€€€€‰Ìˆ(€€€€€t°(€€€€€l(€€€€€€€€‰¤ˆ°(€€€€€€€€‰Ðˆ(€€€€€t°(€€€€€l(€€€€€€€€‰¤ˆ°(€€€€€€€€‰Ìˆ(€€€€€t°(€€€€€l(€€€€€€€€‰„ˆ°(€€€€€€€€‰¸ˆ(€€€€€t°(€€€€€l(€€€€€€€€‹€€ˆ°(€€€€€€€€‰˜ˆ(€€€€€t°(€€€€€l(€€€€€€€€‰„ˆ°(€€€€€€€€‰Èˆ(€€€€€t°(€€€€€€€€‹€€ˆ°(€€€€€€€€‰ˆˆ(€€€€€t°(€€€€€l(€€€€€€€€‹€ˆ°(€€€€€€€€‰½˜ˆ(€€€€€t°(€€€€€l(€€€€€€€€‰„ˆ°(€€€€€€€€‰°ˆ(€€€€€t°(€€€€€l(€€€€€€€€‹€ˆ°(€€€€€€€€‰¥¸ˆ(€€€€€t°(€€€€€l(€€€€€€€€‹€€ˆ°(€€€€€€€€‰Àˆ(€€€€€t°(€€€€€l(€€€€€€€€‰¤ˆ°(€€€€€€€€‰¹œˆ(€€€€€t°(€€€€€l(€€€€€€€€‹€€ˆ°(€€€€€€€€ˆ¸ˆ(€€€€€t°(€€€€€l(€€€€€€€€‰„ˆ°(€€€€€€€€‰Ìˆ(€€€€€t°(€€€€€l(€€€€€€€€‹†"À¢&æB ¢ÒÀ¢°¢,J"À¢&Ò ¢ÒÀ¢°¢,J"À¢'Fò ¢ÒÀ¢°¢&’"À¢&2 ¢ÒÀ¢°¢&ò"À¢'R ¢ÒÀ¢°¢$R"À¢$ò ¢ÒÀ¢°¢,J"À¢&B ¢ÒÀ¢°¢&–ò"À¢&â ¢ÒÀ¢°¢&Â"À¢&R ¢ÒÀ¢°¢,J"À¢&‚ ¢ÒÀ¢°¢'""À¢&ò ¢ÒÀ¢°¢$Tò"À¢%B ¢ÒÀ¢°¢,J""À¢&R ¢ÒÀ¢°¢&Vâ"À¢'B ¢ÒÀ¢°¢&’"À¢&Â ¢ÒÀ¢°¢,J"À¢%B ¢ÒÀ¢°¢,J"À¢%2 ¢ÒÀ¢°¢'2"À¢'B ¢ÒÀ¢°¢,J"À¢'F‚ ¢ÒÀ¢°¢,J"À¢&Â ¢ÒÀ¢°¢&R"À¢&Â ¢ÒÀ¢°¢&ò"À¢&Ò ¢ÒÀ¢,J"À¢&R ¢ÒÀ¢°¢,J"À¢$ ¢ÒÀ¢°¢&"À¢&Ò ¢ÒÀ¢°¢,J"À¢&â ¢ÒÀ¢°¢&2"À¢'B ¢ÒÀ¢°¢,J"À¢# ¢ÒÀ¢°¢,J"À¢$2 ¢ÒÀ¢°¢&’"À¢&B ¢ÒÀ¢°¢,J"À¢%Â" ¢ÒÀ¢°¢&"À¢&B ¢ÒÀ¢°¢&R"À¢'B ¢ÒÀ¢°¢,Jr"À¢&2 ¢ÒÀ¢°¢,J"À¢&r ¢ÒÀ¢°¢&ò"À¢&Â ¢ÒÀ¢°¢'R"À¢'" ¢ÒÀ¢°¢,J"À¢&öâ ¢ÒÀ¢°¢,J"À¢$Ò ¢ÒÀ¢°¢&’"À¢&Ò ¢ÒÀ¢°¢&Â"À¢'’ ¢ÒÀ¢°¢&’"À¢'b ¢ÒÀ¢°¢&ò"À¢'r ¢ÒÀ¢°¢,Jˆ‹ˆ›Üˆ‚ˆKˆÂˆ˜H‹ˆ˜È‚ˆKˆÂˆšH‹ˆ™È‚ˆKˆÂˆH‹ˆœÈ‚ˆKˆÂˆ±(‹ˆ‚ˆKˆÂˆšH‹ˆœˆ‚ˆKˆÂˆ±(‹ˆš\È‚ˆKˆÂˆ±(‹ˆˆ‚ˆKˆÂˆ±(b",
        "e"
      ],
      [
        "o",
        "t"
      ],
      [
        "Ä  ",
        "I"
      ],
      [
        "u",
        "t"
      ],
      [
        "U",
        "S"
      ],
      [
        "Ä¡Ìˆ°(€€€€€€€€‰Ðˆ(€€€€€t°(€€€€€l(€€€€€€€€‰„ˆ°(€€€€€€€€‰äˆ(€€€€€t°(€€€€€l(€€€€€€€€‹„ˆ°(€€€€€€€€‰Ìˆ(€€€€€t°(€€€€€l(€€€€€€€€‰…Ðˆ°(€€€€€€€€‰¥½¸ˆ(€€€€€t°(€€€€€l(€€€€€€€€‰ˆ°(€€€€€€€€‰Hˆ(€€€€€t°(€€€€€l(€€€€€€€€‰ˆ°(€€€€€€€€‰Lˆ(€€€€€t°(€€€€€l(€€€€€€€€‰•Èˆ°(€€€€€€€€‰Ìˆ(€€€€€t°(€€€€€l(€€€€€€€€‰Lˆ°(€€€€€€€€‰Pˆ(€€€€€t°(€€€€€l(€€€€€€€€‰ULˆ°(€€€€€€€€‰Hˆ(€€€€€t°(€€€€€l(€€€€€€€€‰ˆ°(€€€€€€€€‰8ˆ(€€€€€t°(€€€€€l(€€€€€€€€‰Lˆ°(€€€€€€€€‰$ˆ(€€€€€t°(€€€€€l(€€€€€€€€‰8ˆ°(€€€€€€€€‰Pˆ(€€€€€t°(€€€€€l(€€€€€€€€‰MPˆ°(€€€€€€€€‰9Pˆ(€€€€€t°(€€€€€l(€€€€€€€€‰M$ˆ°(€€€€€€€€‰MQ9Pˆ(€€€€€t°(€€€€€l(€€€€€€€€‰Lˆ°(€€€€€€€€‰M%MQ9Pˆ(€€€€€t°(€€€€€l(€€€€€€€€‰¥Ðˆ°(€€€€€€€€‰ ˆ(€€€€€t°(€€€€€l(€€€€€€€€‰<ˆ°(€€€€€€€€‰Lˆ(€€€€€t°(€€€€€l(€€€€€€€€‰<ˆ°(€€€€€€€€‰Lˆ(€€€€€t°(€€€€€l(€€€€€€€€‰ˆ°(€€€€€€€€‰=Lˆ(€€€€€t°(€€€€€l(€€€€€€€€‰Œˆ°(€€€€€€€‰”ˆ(€€€€€t°(€€€€€l(€€€€€€€€‹…B"À¢&†R ¢ÒÀ¢°¢,J"À¢$‚ ¢ÒÀ¢°¢,J"À¢"r ¢ÒÀ¢°¢,Jr"À¢&‚ ¢ÒÀ¢°¢&2"À¢&‚ ¢ÒÀ¢°¢,J‹ˆ˜]‚ˆKˆÂˆšH‹ˆœˆ‚ˆKˆÂˆ±(È‹ˆš]‚ˆKˆÂˆ‹ˆ™\ˆ‚ˆKˆÂˆ±(‹ˆ”‚ˆKˆÂˆ±(‹ˆŒˆ‚ˆKˆÂˆH‹ˆ›ˆ‚ˆKˆÂˆH‹ˆ›‚ˆKˆÂˆ‹H‹ˆ‚ˆKˆÂˆ±(@",
        "-@"
      ],
      [
        "r",
        "a"
      ],
      [
        "v",
        "er"
      ],
      [
        "e",
        "m"
      ],
      [
        "Ä¡Œˆ°(€€€€€€€€‰½¸ˆ(€€€€€t°(€€€€€l(€€€€€€€€‰Ðˆ°(€€€€€€€€‰ ˆ(€€€€€t°(€€€€€l(€€€€€€€€‹€ˆ°(€€€€€€€€‰Hˆ(€€€€€t°(€€€€€l(€€€€€€€€‹€ˆ°(€€€€€€€€‰ˆ(€€€€€t°(€€€€€l(€€€€€€€€‹„ˆ°(€€€€€€€€‰°ˆ(€€€€€t°(€€€€€l(€€€€€€€€‹†""À¢'’ ¢ÒÀ¢°¢,JH‹ˆ›ˆ‚ˆKˆÂˆ›È‹ˆœÈ‚ˆKˆÂˆ±(‹ˆ•È‚ˆKˆÂˆ±(‹ˆ‘ˆ‚ˆKˆÂˆ±(‹ˆš]‚ˆKˆÂˆ±(‹ˆŠ‚ˆKˆÂˆH‹ˆ›H‚ˆKˆÂˆ˜H‹ˆ™È‚ˆKˆÂˆ±(‹ˆ‘È‚ˆKˆÂˆ™\È‹ˆ‚ˆKˆÂˆ±(‹ˆ“ˆ‚ˆKˆÂˆ±(at",
         "and"
      ],
      [
        "Ä ",
        "L"
      ],
      [
        "rom",
        "av"
      ],
      [
        "o",
        "d"
      ],
      [
        "i",
        "st"
      ],
      [
        "Ä  ",
        "he"
      ],
      [
        "p",
        "e"
      ],
      [
        "i",
        "f"
      ],
      [
        "0",
        "0"
      ],
      [
        "a",
        "in"
      ],
      [
        "Ä 1",
        "9"
      ],
      [
        "Ä  ",
        "de"
      ],
      [
        "Ä  ",
        "v"
      ],
      [
        "Ä ",
        "se"
      ],
      [
        "Ä ",
        "r"
      ],
      [
        "Ä¡¼ˆ°(€€€€€€€€‰´ˆ(€€€€€t°(€€€€€l(€€€€€€€€‹€ˆ°(€€€€€€€€‰ˆ(€€€€€t°(€€€€€l(€€€€€€€€‹‡"À¢'&ò ¢ÒÀ¢°¢,J"À¢'’ ¢ÒÀ¢°¢'""À¢&’ ¢ÒÀ¢°¢,J"À¢$¢ ¢ÒÀ¢°¢&ò"À¢' ¢ÒÀ¢°¢&Â"À¢&B ¢ÒÀ¢°¢%r"À¢&‚ ¢ÒÀ¢°¢,J"À¢&g&öÒ ¢ÒÀ¢°¢,J"À¢"’ ¢ÒÀ¢°¢&B"À¢&R ¢ÒÀ¢°¢,J"À¢&÷" ¢ÒÀ¢°¢,J"À¢&&R ¢ÒÀ¢°¢&’"À¢&ÆÂ ¢ÒÀ¢°¢&ò"À¢'&R ¢ÒÀ¢°¢&’"À¢&W2 ¢ÒÀ¢°¢&÷""À¢'B ¢ÒÀ¢°¢&’"À¢&6‚ ¢ÒÀ¢°¢&’"À¢&v‚ ¢ÒÀ¢°¢&"À¢&² ¢ÒÀ¢°¢'&R"À¢'2 ¢ÒÀ¢°¢,J2"À¢'R ¢ÒÀ¢°¢&""À¢'B ¢ÒÀ¢°¢&Â"À¢&Â ¢ÒÀ¢°¢&"À¢&" ¢ÒÀ¢°¢,J"À¢&W‚ ¢ÒÀ¢°¢&ò"À¢&2 ¢ÒÀ¢°¢&—B"À¢'’ ¢ÒÀ¢°¢'"À¢'R ¢ÒÀ¢°¢&R"À¢'r ¢ÒÀ¢°¢&â"À¢'B ¢ÒÀ¢°¢,J‚"À¢&—2 ¢ÒÀ¢°¢,J"À¢$ò ¢ÒÀ¢°¢&R"À¢'&R ¢ÒÀ¢°¢&W2"À¢'2 ¢ÒÀ¢°¢&""À¢&B ¢ÒÀ¢°¢,JÈ‹ˆš‚ˆKˆÂˆš]ˆ‹ˆ™H‚ˆKˆÂˆ±(‹ˆ›‚ˆKˆÂˆ›ÝH‹ˆœˆ‚ˆKˆÂˆ˜H‹ˆœ‚ˆKˆÂˆH‹ˆ™‚ˆKˆÂˆ˜ˆ‹ˆ™\ˆ‚ˆKˆÂˆ˜[H‹ˆ™H‚ˆKˆÂˆœÈ‹ˆ™H‚ˆKˆÂˆ›Ûˆ‹ˆ™È‚ˆKˆÂˆ±(È‹ˆ™\™H‚ˆKˆÂˆ˜]‹ˆ™Y‚ˆKˆÂˆ±(È‹ˆš‚ˆKˆÂˆ±(‹ˆšÈ‚ˆKˆÂˆ•Ú‹ˆ˜]‚ˆKˆÂˆ‹ˆ™H‚ˆKˆÂˆ™È‹ˆš‚ˆKˆÂˆšH‹ˆœ‚ˆKˆÂˆ™È‹ˆ™H‚ˆKˆÂˆ±(‹ˆ›H‚ˆKˆÂˆ±(‹ˆ’È‚ˆKˆÂˆ›YH‹ˆ›‚ˆKˆÂˆœˆ‹ˆ›ÝH‚ˆKˆÂˆšXH‹ˆ›‚ˆKˆÂˆ˜\È‹ˆ‚ˆKˆÂˆ±(Ú‹ˆšXÚ‚ˆKˆÂˆ˜H‹ˆ˜ÚÈ‚ˆKˆÂˆšH‹ˆ˜[ˆ‚ˆKˆÂˆ™XH‹ˆœˆ‚ˆKˆÂˆšH‹ˆ˜H‚ˆKˆÂˆ™[‹ˆ›‚ˆKˆÂˆ›È‹ˆˆ‚ˆKˆÂˆH‹ˆœ™H‚ˆKˆÂˆ›È‹ˆœÝ‚ˆKˆÂˆ›ˆ‹ˆ‚ˆKˆÂˆšYÚ‹ˆ‚ˆKˆÂˆ±(‹ˆ\È‚ˆKˆÂˆ˜H‹ˆ™H‚ˆKˆÂˆšH‹ˆ›™H‚ˆKˆÂˆœ‹ˆ‚ˆKˆÂˆ±(‹ˆ››Ý‚ˆKˆÂˆœ‹ˆœ‚ˆKˆÂˆ±(‹ˆ•H‚ˆKˆÂˆšXÈ‹ˆ˜[‚ˆKˆÂˆ°èˆ‹ˆ±"‚ˆKˆÂˆ±(I",
        "n"
      ],
      [
        "ct",
        "ion"
      ],
      [
        "the",
        "r"
      ],
      [
        "or",
        "d"
      ],
      [
        "u",
       "st"
      ],
      [
        "Ä  ",
        "u"
      ],
      [
        "Ä¡„ˆ°(€€€€€€€€‰ˆ(€€€€€t°(€€€€€l(€€€€€€€€‰¤ˆ°(€€€€€€€€‰É”ˆ(€€€€€t°(€€€€€l(€€€€€€€€‰…Èˆ°(€€€€€€€€‰äˆ(€€€€€t°(€€€€€l(€€€€€€€€‰Èˆ°(€€€€€€€€‰¥Ðˆ(€€€€€t°(€€€€€l(€€€€€€€€‰½Ôˆ°(€€€€€€€€‰±ˆ(€€€€€t°(€€€€€l(€€€€€€€€‹†6öÒ"À¢' ¢ÒÀ¢°¢,JÈ‹ˆ‚ˆKˆÂˆ˜È‹ˆ›‚ˆKˆÂˆšH‹ˆ›ˆ‚ˆKˆÂˆšY‹ˆ™H‚ˆKˆÂˆ›È‹ˆ›YH‚ˆKˆÂˆœ‹ˆ™\ˆ‚ˆKˆÂˆ•‹ˆšH‚ˆKˆÂˆ›È‹ˆ™È‚ˆKˆÂˆ±(‹ˆ[ˆ‚ˆKˆÂˆšH‹ˆœÚ‚ˆKˆÂˆ±(0èˆ±"‚ˆKˆÂˆ±(C",
        "h"
      ],
      [
        "o",
       "us"
      ],
      [
        "u",
        "e"
      ],
      [
        "ir",
        "st"
      ],
      [
        "c",
        "c"
      ],
      [
         "i",
        "e"
      ],
      [
        "ag",
        "e"
      ],
      [
       "Ä  ",
        "3"
      ],
      [
        "a",
        "re"
      ],
      [
        "r",
        "y"
      ],
      [
        "ou",
        "t"
      ],
      [
        "as",
        "s"
      ],
      [
        "Ä¡ ˆ°(€€€€€€€€‰…Ù”ˆ(€€€€€t°(€€€€€l(€€€€€€€€‰˜ˆ°(€€€€€€€€‰˜ˆ(€€€€€t°(€€€€€l(€€€€€€€€‰Ìˆ°(€€€€€€€€‰¼ˆ(€€€€€t°(€€€€€l(€€€€€€€€‹†"À¢&" ¢ÒÀ¢°¢,J6öâ"À¢'B ¢ÒÀ¢°¢,JF†V—""À¢" ¢ÒÀ¢°¢'R"À¢&" ¢ÒÀ¢°¢'""À¢&â ¢ÒÀ¢°¢,Jˆ‹ˆŒ‚ˆKˆÂˆ›È‹ˆœšÈ‚ˆKˆÂˆ±(È‹ˆ›‚ˆKˆÂˆšH‹ˆžˆ‚ˆKˆÂˆ›È‹ˆšÈ‚ˆKˆÂˆ±(but",
        ""
      ],
      [
        "Ä ",
        "V"
      ],
      [
        "Ä ˆ°(€€€€€€€€‰¥¹Ðˆ(€€€€€t°(€€€€€l(€€€€€€€‹€™¥ÉÍÐˆ°(€€€€€€€€ˆˆ(€€€€€t°(€€€€€l(€€€€€€€€‰Àˆ°(€€€€€€€‰°ˆ(€€€€€t°(€€€€€l(€€€€€€€€‹‚"À¢&" ¢ÒÀ¢°¢,J"À¢&B ¢ÒÀ¢°¢,JÖâ"À¢" ¢ÒÀ¢°¢&Ò"À¢&W" ¢ÒÀ¢°¢,J‹ˆ˜Ø[ˆ‚ˆKˆÂˆœˆ‹ˆH‚ˆKˆÂˆš]‹ˆš[Ûˆ‚ˆKˆÂˆ™H‹ˆ˜Ý‚ˆKˆÂˆ±(ˆ‹ˆŒ‚ˆKˆÂˆ±(‹ˆH‚ˆKˆÂˆšH‹ˆ™Ûˆ‚ˆKˆÂˆ›È‹ˆœ›H‚ˆKˆÂˆ±(‹ˆš]È‚ˆKˆÂˆ™ˆ‹ˆ\ˆ‚ˆKˆÂˆ™‹ˆH‚ˆKˆÂˆšH‹ˆ›YH‚ˆKˆÂˆ˜]‹ˆ™\ˆ‚ˆKˆÂˆ±(",
        "per"
      ],
      [
        "w",
        "o"
      ],
      [
        "l",
        "ow"
      ],
      [
        "u",
        "lt"
      ],
      [
        "Ä  also",
        ""
      ],
      [
        "Ä ˆ°(€€€€€€€€‰•¸ˆ(€€€€€t°(€€€€€l(€€€€€€€€‹Èˆ°(€€€€€€€€‰•Ìˆ(€€€€€t°(€€€€€l(€€€€€€€€‹€€ˆ°(€€€€€€€€‰¡…Ìˆ(€€€€€t°(€€€€€l(€€€€€€€€‰¼ˆ°(€€€€€€€€‰¹ˆ(€€€€€t°(€€€€€l(€€€€€€€€‰•¸ˆ°(€€€€€€€€‰”ˆ(€€€€€t°(€€€€€l(€€€€€€€€‰„ˆ°(€€€€€€€€‰Ðˆ(€€€€€t°(€€€€€l(€€€€€€€€‰…°ˆ°(€€€€€€€€‰±äˆ(€€€€€t°(€€€€€l(€€€€€€€‹€€ˆ°(€€€€€€€€‰å½Ôˆ(€€€€€t°(€€€€€l(€€€€€€€€‰¬ˆ°(€€€€€€€€‰”ˆ(€€€€€t°(€€€€€l(€€€€€€€‹€€ˆ°(€€€€€€€€‰½¹”ˆ(€€€€€t°(€€€€€l(€€€€€€€€‰¼ˆ°(€€€€€€€€‰Ý¸ˆ(€€€€€t°(€€€€€l(€€€€€€€€‹‚"À¢'62 ¢ÒÀ¢°¢'""À¢&VR ¢ÒÀ¢°¢,JF–B"À¢" ¢ÒÀ¢°¢&"À¢&6‚ ¢ÒÀ¢°¢,J‹ˆžYX\ˆ‚ˆKˆÂˆšH‹ˆ›H‚ˆKˆÂˆ±(‹ˆš[H‚ˆKˆÂˆšH‹ˆ˜ˆ‚ˆKˆÂˆ›ÝH‹ˆ›‚ˆKˆÂˆ‰È‹ˆœÈ‚ˆKˆÂˆ˜][Ûˆ‹ˆœÈ‚ˆKˆÂˆ›ÝH‹ˆ›™‚ˆKˆÂˆ±(‹ˆš\ˆ‚ˆKˆÂˆšH‹ˆ™‚ˆKˆÂˆšXÈ‹ˆ™H‚ˆKˆÂˆ±(‹ˆ\È‚ˆKˆÂˆ±(",
        "He"
      ],
      [
        "Ä who",
        ""
      ],
      [
        "Ä r",
        "ec"
      ],
      [
        "Ä  ",
        "ne"
      ],
      [
        "Ä  Th",
        ""
      ],
      [
        "Ä  ",
        "other"
      ],
      [
        "f",
        "er"
      ],
      [
       "Ä  ",
        "part"
      ],
      [
        "a",
        "ce"
      ],
       "Ä  ",
        "It"
      ],
      [
        "Ä  ",
        "j"
      ],
      [
        "r",
        "ic"
      ],
      [
        "Ä  ",
        "dis"
      ],
      [
       "Ä  ",
        "do"
      ],
      [
        "ur",
        "ing"
      ],
      [
        "el",
        "y"
      ],
      [
       "Ä  ",
        "ro"
      ],
      [
        "Ä play",
        ""
      ],
      [
       "o",
       "ry"
      ],
       "Ä  ",
        "go"
      ],
      [
        "Ä  ",
        "bec"
      ],
      [
       "Ä  ",
        "two"
      ],
      [
       "Ä  ",
        "4"
      ],
      [
        "i",
        "nd"
      ],
      [
        "p",
        "ort"
      ],
      [
        "Ä ˆ°(€€€€€€€€ˆìˆ(€€€€€t°(€€€€€l(€€€€€€€€‰…¸ˆ°(€€€€€€€€‰œˆ(€€€€€t°(€€€€€l(€€€€€€€€‰°ˆ°(€€€€€€€€‰…¹ˆ(€€€€€t°(€€€€€l(€€€€€€€€‰°ˆ°(€€€€€€€€‰Õˆ(€€€€€t°(€€€€€l(€€€€€€€‹€€ˆ°(€€€€€€€€ˆÄàˆ(€€€€€t°(€€€€€l(€€€€€€€€‹€€ˆ°(€€€€€€€€ˆÔˆ(€€€€€t°(€€€€€l(€€€€€€€€‹€ˆ°(€€€€€€€€‰Í•Èˆ(€€€€€t°(€€€€€l(€€€€€€€€‹‚"À¢&÷WB ¢ÒÀ¢°¢&–öâ"À¢'2 ¢ÒÀ¢°¢&÷R"À¢&v‚ ¢ÒÀ¢°¢,JÈ‹ˆš]‚ˆKˆÂˆ±(the",
        "y"
      ],
      [
        "Ä£‹#´ˆ°(€€€€€€€€ˆˆ(€€€€€t°(€€€€€l(€€€€€€€‹€€ˆ°(€€€€€€€€‰ÁÉ”ˆ(€€€€€t°(€€€€€l(€€€€€€€€‰…¸ˆ°(€€€€€€€€‰”ˆ(€€€€€t°(€€€€€l(€€€€€€€€‰…Èˆ°(€€€€€€€€‰¬ˆ(€€€€€t°(€€€€€l(€€€€€€€‹€€ÈÀˆ°(€€€€€€€€ˆÄˆ(€€€€€t°(€€€€€l(€€€€€€€‹€€ˆ°(€€€€€€€€‰‰••¸ˆ(€€€€€t°(€€€€€l(€€€€€€€€‹‚"À¢&FW2 ¢ÒÀ¢°¢,J"À¢%’ ¢ÒÀ¢°¢'b"À¢&VÂ ¢ÒÀ¢°¢,J"À¢&r ¢ÒÀ¢°¢'"À¢&‚ ¢ÒÀ¢°¢,J‹ˆÙH‚ˆKˆÂˆ±(‹ˆ›YH‚ˆKˆÂˆ±(‹ˆ›Ý™\ˆ‚ˆKˆÂˆšH‹ˆœ™H‚ˆKˆÂˆ™[ˆ‹ˆœÈ‚ˆKˆÂˆ›È‹ˆ›™H‚ˆKˆÂˆ±(‹ˆŽˆ‚ˆKˆÂˆ˜H‹ˆ˜›H‚ˆKˆÂˆ˜]‹ˆ™\È‚ˆKˆÂˆ˜H‹ˆ™H‚ˆKˆÂˆ˜\È‹ˆ™H‚ˆKˆÂˆ±(‹ˆœÜH‚ˆKˆÂˆ±(‹ˆ[‚ˆKˆÂˆ±(‹ˆ[YH‚ˆKˆÂˆ›Üˆ‹ˆœÈ‚ˆKˆÂˆ˜H‹ˆšÙH‚ˆKˆÂˆ±(‹ˆ\‚ˆKˆÂˆ›ˆ‹ˆ™È‚ˆKˆÂˆœˆ‹ˆ™\ÜÈ‚ˆKˆÂˆ±(‹ˆš[˜ÛY‚ˆKˆÂˆ±(‹ˆ›[Ü™H‚ˆKˆÂˆ›H‹ˆ˜[ˆ‚ˆKˆÂˆÈ‹ˆ™H‚ˆKˆÂˆ±(‹ˆ•[ˆ‚ˆKˆÂˆ±(‹ˆœÜ‚ˆKˆÂˆÈ‹ˆ›ˆ‚ˆKˆÂˆ›ˆ‹ˆ™\ˆ‚ˆKˆÂˆ±(‹ˆ˜Y\ˆ‚ˆKˆÂˆ±(‹ˆÛÝ[‚ˆKˆÂˆšH‹ˆH‚ˆKˆÂˆ±(‹ˆ˜[‚ˆKˆÂˆ±(‹ˆš[È‚ˆKˆÂˆ˜\È‹ˆ™Y‚ˆKˆÂˆ˜ÙH‹ˆ™‚ˆKˆÂˆˆ‹ˆ™H‚ˆKˆÂˆ±(com",
        "m"
      ],
      [
        "l",
        "es"
      ],
      [
        "in",
        "t"
      ],
      [
        "ur",
        "n"
      ],
      [
        "ter",
        "n"
      ],
      [
       ".",
        "@"
      ],
      [
        "Ä @",
        ".@"
      ],
      [
        "a",
        "mp"
      ],
      [
        "o",
        "se"
      ],
      [
        "i",
        "ld"
      ],
      [
        "it",
        "ed"
      ],
      [
        "Ä ˆ°(€€€€€€€€‰•Øˆ(€€€€€t°(€€€€€l(€€€€€€€€‰Œˆ°(€€€€€€€€‰•Ìˆ(€€€€€t°(€€€€€l(€€€€€€€‰¥¹œˆ°(€€€€€€€€‰Ìˆ(€€€€€t°(€€€€€l(€€€€€€€€‰˜ˆ°(€€€€€€€€‰½É´ˆ(€€€€€t°(€€€€€l(€€€€€€€€‰½¸ˆ°(€€€€€€€€‰Ìˆ(€€€€€t°(€€€€€l(€€€€€€€€‰¸ˆ°(€€€€€€€€‰”ˆ(€€€€€t°(€€€€€l(€€€€€€€€‰•¹Ðˆ°(€€€€€€€€‰Ìˆ(€€€€€t°(€€€€€l(€€€€€€€‹€€ˆ°(€€€€€€€€‰Ý½É¬ˆ(€€€€€t°(€€€€€l(€€€€€€€€‹‚"À¢&öfb ¢ÒÀ¢°¢'&R"À¢&B ¢ÒÀ¢°¢$’"À¢&â ¢ÒÀ¢°¢&"À¢&–Â ¢ÒÀ¢°¢,J"À¢&&WB ¢ÒÀ¢°¢,J"À¢&6ò ¢ÒÀ¢°¢,J"À¢&Ö÷7B ¢ÒÀ¢°¢"Â"À¢$ ¢ÒÀ¢°¢,J‹ˆ‹‚ˆKˆÂˆ±(‹ˆÚ[ˆ‚ˆKˆÂˆœ›ÝH‹ˆ™Ú‚ˆKˆÂˆ›È‹ˆ›‚ˆKˆÂˆ˜]H‹ˆœÈ‚ˆKˆÂˆ™ˆ‹ˆ‚ˆKˆÂˆ›È‹ˆžH‚ˆKˆÂˆÈ‹ˆ˜\™‚ˆKˆÂˆšH‹ˆ™Y‚ˆKˆÂˆ±(‹ˆ”ÙH‚ˆKˆÂˆ±(H‹ˆ‚ˆKˆÂˆ˜[ˆ‹ˆœÈ‚ˆKˆÂˆ±(ÛÛˆ‹ˆœÈ‚ˆKˆÂˆšH‹ˆ˜ÚÈ‚ˆKˆÂˆž‹ˆ‚ˆKˆÂˆ±(",
        "fe"
      ],
      [
        "Ä  ",
        "kn"
      ],
      [
        "o",
       "rld"
      ],
      [
       "Ä  ",
        "many"
      ],
      [
        "Ä ˆ°(€€€€€€€€‰¹•Üˆ(€€€€€t°(€€€€€l(€€€€€€€‹€€ˆ°(€€€€€€€€‰I”ˆ(€€€€€t°(€€€€€l(€€€€€€€€‹€€ˆ°(€€€€€€€€‰…‰½ÕÐˆ(€€€€€t°(€€€€€l(€€€€€€€€‰„ˆ°(€€€€€€€‰Üˆ(€€€€€t°(€€€€€l(€€€€€€€€‰¤ˆ°(€€€€€€€€‰Ðˆ(€€€€€t°(€€€€€l(€€€€€€€€‹€€ˆ°(€€€€€€€€‰Á”ˆ(€€€€€t°(€€€€€l(€€€€€€€€‰…°ˆ°(€€€€€€€€‰Ìˆ(€€€€€t°(€€€€€l(€€€€€€€‹€€ˆ°(€€€€€€€€ˆØˆ(€€€€€t°(€€€€€l(€€€€€€€€‰Èˆ°(€€€€€€€€‰¥ˆˆ(€€€€€t°(€€€€€l(€€€€€€€€‹€€ˆ°(€€€€€€€€‰ÑÈˆ(€€€€€t°(€€€€€l(€€€€€€€€‹Ñ¡”ˆ°(€€€€€€€€‰´ˆ(€€€€€t°(€€€€€l(€€€€€€€‹€€ˆ°(€€€€€€€€‰Í¡”ˆ(€€€€€t°(€€€€€l(€€€€€€€‹€€ˆ°(€€€€€€€€‰Í•Œˆ(€€€€€t°(€€€€€l(€€€€€€€‰¤ˆ°(€€€€€€€‰½ÕÌˆ(€€€€€t°(€€€€€l(€€€€€€€‹€€ˆ°(€€€€€€€€‰•¹Ðˆ(€€€€€t°(€€€€€l(€€€€€€€€‹‚"À¢'6öÖR ¢ÒÀ¢°¢,J‹ˆš[H‚ˆKˆÂˆš\È‹ˆœÈ‚ˆKˆÂˆ±(‹ˆœ]H‚ˆKˆÂˆ›È‹ˆ›Ù‚ˆKˆÂˆH‹ˆ˜›‚ˆKˆÂˆ˜]‹ˆ‚ˆKˆÂˆÈ‹ˆ™Y[ˆ‚ˆKˆÂˆ±(‹ˆ™Ø[YH‚ˆKˆÂˆ™È‹ˆ˜[ˆ‚ˆKˆÂˆ›È‹ˆ˜ˆ‚ˆKˆÂˆ˜][Ûˆ‹ˆ˜[‚ˆKˆÂˆ˜È‹ˆšÈ‚ˆKˆÂˆœ›ÝH‹ˆ›™‚ˆKˆÂˆ™[H‹ˆ˜™\ˆ‚ˆKˆÂˆ±(‹ˆ[ˆ‚ˆKˆÂˆ±(",
        "col"
      ],
      [
       "Ä  ",
        "used"
      ],
      [
        "Ä ˆ°(€€€€€€€€‰Íäˆ(€€€€€t°(€€€€€l(€€€€€€€€‰Èˆ°(€€€€€€€‰•ˆ(€€€€€t°(€€€€€l(€€€€€€€€‰µ•Èˆ°(€€€€€€€€‰¥Œˆ(€€€€€t°(€€€€€l(€€€€€€€€‰Üˆ°(€€€€€€€‰…äˆ(€€€€€t°(€€€€€l(€€€€€€€€‹ÁÉ¼ˆ°(€€€€€€€€‰‘Ôˆ(€€€€€t°(€€€€€l(€€€€€€€€‰…Ðˆ°(€€€€€€€‰ ˆ(€€€€€t°(€€€€€l(€€€€€€€€‹‚"À¢&'R ¢ÒÀ¢°¢,J"À¢#r ¢ÒÀ¢°¢&’"À¢&¶R ¢ÒÀ¢°¢,J&WB"À¢'vVVâ ¢ÒÀ¢°¢,J"À¢$FR ¢ÒÀ¢°¢'R"À¢&Æ" ¢ÒÀ¢°¢,J"À¢& ¢ÒÀ¢°¢&ò"À¢'F‚ ¢ÒÀ¢°¢&öÆÂ"À¢&÷r ¢ÒÀ¢°¢,J"À¢'&VÂ ¢ÒÀ¢°¢&’"À¢&ÆÒ ¢ÒÀ¢°¢'b"À¢&VB ¢ÒÀ¢°¢,J"À¢&GW&–ær ¢ÒÀ¢°¢&W""À¢&VB ¢ÒÀ¢°¢'""À¢&öâ ¢ÒÀ¢°¢,J"À¢&V" ¢ÒÀ¢°¢&2"À¢&öâ ¢ÒÀ¢°¢,JH‹ˆ›Y\šXÈ‚ˆKˆÂˆœÈ‹ˆœÈ‚ˆKˆÂˆ±(",
        "rem"
      ],
      [
       "o",
       "ok"
      ],
      [
        "if",
        "ic"
      ],
      [
        "Ä ˆ°(€€€€€€€€‰Õ¹‘•Èˆ(€€€€€t°(€€€€€l(€€€€€€€€‰¸ˆ°(€€€€€€€‰¥¹œˆ(€€€€€t°(€€€€€l(€€€€€€€‰¼ˆ°(€€€€€€€‰ÉÑ ˆ(€€€€€t°(€€€€€l(€€€€€€€‰Ôˆ°(€€€€€€€‰œˆ(€€€€€t°(€€€€€l(€€€€€€€€‹‚"À¢&öæÇ’ ¢ÒÀ¢°¢&–â"À¢&Â ¢ÒÀ¢°¢,J"À¢&f÷&Ò ¢ÒÀ¢°¢,J‹ˆš[\ˆ‚ˆKˆÂˆ±(‹ˆ“X\ˆ‚ˆKˆÂˆš‹ˆš\‚ˆKˆÂˆ±(‹ˆœÝXÚ‚ˆKˆÂˆ›‹ˆ™XÝ‚ˆKˆÂˆ±(‹ˆœÈ‚ˆKˆÂˆ±(‹ˆ™›‚ˆKˆÂˆ±(‹ˆŽ‚ˆKˆÂˆ±(",
        "Ar"
      ],
      [
        "Ä  ",
        "char"
      ],
      [
        "Ä ˆ°(€€€€€€€€‰É•œˆ(€€€€€t°(€€€€€l(€€€€€€€‹€€ˆ°(€€€€€€€€‰•¸ˆ(€€€€€t°(€€€€€l(€€€€€€€‰¼ˆ°(€€€€€€€‰¬ˆ(€€€€€t°(€€€€€l(€€€€€€€€‰¤ˆ°(€€€€€€€‰àˆ(€€€€€t°(€€€€€l(€€€€€€€€‹‚"À¢&çVÒ ¢ÒÀ¢°¢&b"À¢&÷&R ¢ÒÀ¢°¢,J"À¢&62 ¢ÒÀ¢°¢,J"À¢'F‡&÷Vv‚ ¢ÒÀ¢°¢,J‹ˆš[˜È‚ˆKˆÂˆ˜]‹ˆš[™È‚ˆKˆÂˆ±(‹ˆ˜H‚ˆKˆÂˆšXÈ‹ˆœÈ‚ˆKˆÂˆ±(‹ˆœÜXÈ‚ˆKˆÂˆ±(",
        "there"
      ],
      [
        "Ä  ",
        "act"
      ],
      [
       "Ä  ",
        "New"
      ],
      [
       "Ä  ",
        "am"
      ],
      [
        "o",
       "uth"
      ],
      [
       "Ä  ",
        "where"
      ],
      [
        "Ä  ",
        "pos"
      ],
      [
       "Ä  ",
        "lar"
      ],
      [
       "Ä  ",
        "pr"
      ],
      [
        "t",
       "ed"
      ],
      [
        "Ä  ",
        "again"
      ],
      [
        "Ä  ",
        "ind"
      ],
      [
       "r",
       "al"
      ],
      [
        "Ä  ",
        "ra"
      ],
      [
        "Ä  ",
        "end"
      ],
      [
       "Ä  19",
        "9"
      ],
      [
       "ver",
        "y"
      ],
      [
        "Ä ˆ°(€€€€€€€€‰Í½¹œˆ(€€€€€t°(€€€€€l(€€€€€€€€‹‚"À¢#’ ¢ÒÀ¢°¢,Jˆ‹ˆ™[H‚ˆKˆÂˆŒ‹ˆŒ‚ˆKˆÂˆ±(‹ˆ™^H‚ˆKˆÂˆ˜[H‹ˆ™\È‚ˆKˆÂˆ±(",
        "ret"
      ],
      [
       "Ä  ",
        "three"
      ],
      [
        "r",
       "en"
      ],
      [
        "Ä  ",
        "film"
      ],
      [
        "Ä ˆ°(€€€€€€€€‰…ÍÌˆ(€€€€€t°(€€€€€l(€€€€€€€‰¤ˆ°(€€€€€€€‰•Üˆ(€€€€€t°(€€€€€l(€€€€€€€€‰¼ˆ°(€€€€€€€‰ ˆ(€€€€€t°(€€€€€l(€€€€€€€€‹‚"À¢&Ö÷b ¢ÒÀ¢°¢,J"À¢&6ÆÂ ¢ÒÀ¢°¢,J‹ˆœÝXˆ‚ˆKˆÂˆ±(‹ˆ™›ÛÝÈ‚ˆKˆÂˆH‹ˆ˜[‚ˆKˆÂˆ‹ˆ™[ˆ‚ˆKˆÂˆ±(‹ˆ›ØÈ‚ˆKˆÂˆ±(‹ˆÚ[H‚ˆKˆÂˆ±(‹ˆ›XYH‚ˆKˆÂˆœ˜[ˆ‹ˆœÈ‚ˆKˆÂˆ±(‹ˆš\È‚ˆKˆÂˆ±(‹ˆ™Yˆ‚ˆKˆÂˆ±(‹ˆ“H‚ˆKˆÂˆš[ˆ‹ˆœÈ‚ˆKˆÂˆ›Ü‹ˆ›H‚ˆKˆÂˆ›‹ˆ›‚ˆKˆÂˆšH‹ˆœÈ‚ˆKˆÂˆ±(",
        "def"
      ],
      [
       "ar",
        "s"
      ],
      [
       "Ä  ",
        "inv"
      ],
      [
       "Ä  ",
        "mus"
      ],
      [
       "Ä  ",
        "writ"
      ],
      [
        "e",
        "ver"
      ],
      [
       "e",
       "nd"
      ],
      [
        "i",
       "iel"
      ],
      [
       "ur",
        "y"
      ],
      [
       "Ä  ",
        "team"
      ],
      [
        "od",
       "e"
      ],
      [
        "Ä ˆ°(€€€€€€€€‰å½ÕÈˆ(€€€€€t°(€€€€€l(€€€€€€€€‰½Üˆ°(€€€€€€€‰•Èˆ(€€€€€t°(€€€€€l(€€€€€€€€‹€€ˆ°(€€€€€€€€‰ÕÍ”ˆ(€€€€€t°(€€€€€l(€€€€€€€‰¥Øˆ°(€€€€€€€€‰•ÉÌˆ(€€€€€t°(€€€€€l(€€€€€€€€‰Àˆ°(€€€€€€€‰•¸ˆ(€€€€€t°(€€€€€l(€€€€€€€€‰¤ˆ°(€€€€€€€‰¼ˆ(€€€€€t°(€€€€€l(€€€€€€€€‰Àˆ°(€€€€€€€€‰Ìˆ(€€€€€t°(€€€€€l(€€€€€€€€‰¥Ðˆ°(€€€€€€€‰¥•Ìˆ(€€€€€t°(€€€€€l(€€€€€€€‰•Èˆ°(€€€€€€€€‰´ˆ(€€€€€t°(€€€€€l(€€€€€€€‰Ðˆ°(€€€€€€€‰Ìˆ(€€€€€t°(€€€€€l(€€€€€€€€‹‚"À¢&2 ¢ÒÀ¢°¢'fVÂ"À¢&÷ ¢ÒÀ¢°¢,J"À¢&ÆFW" ¢ÒÀ¢°¢'""À¢&Ò ¢ÒÀ¢°¢,J–V""À¢'2 ¢ÒÀ¢°¢,JÙXÈ‹ˆ›Û™‚ˆKˆÂˆšˆ‹ˆ™XÝ‚ˆKˆÂˆ±(™XÈ‹ˆ›Ü™‚ˆKˆÂˆš\È‹ˆšY‚ˆKˆÂˆ±(‹ˆ˜\‚ˆKˆÂˆ’‹ˆ›ÝÈ‚ˆKˆÂˆ›Û‹ˆ›ÙÈ‚ˆKˆÂˆ±(",
        "set"
      ],
      [
       "Ä  ",
        "cre"
      ],
      [
       "st",
        "em"
      ],
      [
        "in",
       "es"
      ],
      [
        "Ä h",
        "igh"
      ],
      [
       "id",
        "ent"
      ],
      [
        "Ä  ",
        "add"
      ],
      [
       "Ä  ",
        "Com"
      ],
      [
       "Ä  ",
        "pop"
      ],
      [
       "Ä  ",
        "bl"
      ],
      [
        "o",
       "ol"
      ],
      [
        "Ä  ",
        "pol"
      ],
      [
       "o",
       "rn"
      ],
      [
        "il",
        "y"
      ],
      [
       "t",
       "on"
      ],
      [
        "aus",
        "e"
      ],
      [
        "Ä¡Àˆ°(€€€€€€€‰Õ‰°ˆ(€€€€€t°(€€€€€l(€€€€€€€‰¥Ìˆ°(€€€€€€€€‰”ˆ(€€€€€t°(€€€€€l(€€€€€€€‰…¸ˆ°(€€€€€€€€‰¬ˆ(€€€€€t°(€€€€€l(€€€€€€€‹€€ˆ°(€€€€€€€€‰ÍÕÁÀˆ(€€€€€t°(€€€€€l(€€€€€€€€‹‚"À¢&†÷r ¢ÒÀ¢°¢,J"À¢&f÷VæB ¢ÒÀ¢°¢,J"À¢'6V6öâ ¢ÒÀ¢°¢&’"À¢&² ¢ÒÀ¢°¢,J™H‹ˆš[™È‚ˆKˆÂˆš\È‹ˆš[Ûˆ‚ˆKˆÂˆ±(‹ˆ™[H‚ˆKˆÂˆ±(™H‹ˆ™›Ü™H‚ˆKˆÂˆš]ˆ‹ˆ™Y‚ˆKˆÂˆ±(‹ˆœÝ\ˆ‚ˆKˆÂˆ‹ˆ˜Z[ˆ‚ˆKˆÂˆ±(‹ˆ™›Ý\ˆ‚ˆKˆÂˆ±(",
        "imp"
      ],
      [
       "Ä  ",
        "ent"
      ],
      [
       "Ä  ",
        "met"
      ],
      [
       "Ä  ",
        "dec"
      ],
      [
       "u",
       "res"
      ],
      [
       "Ä  ",
        "ty"
      ],
      [
        "Ä pe",
       "ople"
      ],
      [
        "Ä Äˆ°(€€€€€€€ˆÀˆ(€€€€€t°(€€€€€l(€€€€€€€€‹‚"À¢'v–ÆÂ ¢ÒÀ¢°¢&—B"À¢'2 ¢ÒÀ¢°¢&"À¢&–B ¢ÒÀ¢°¢&"À¢&¢ ¢ÒÀ¢°¢&B"À¢&†W" ¢ÒÀ¢°¢&÷B"À¢&†W" ¢ÒÀ¢°¢&"À¢'R ¢ÒÀ¢°¢&â"À¢'’ ¢ÒÀ¢°¢,J›È‹ˆˆ‚ˆKˆÂˆ±(de",
        "velop"
      ],
      [
        "Ä¡Àˆ°(€€€€€€€‰É•Ìˆ(€€€€€t°(€€€€€l(€€€€€€€‹€€ˆ°(€€€€€€€€‰¹¼ˆ(€€€€€t°(€€€€€l(€€€€€€€€‹€€ˆ°(€€€€€€€€‰½Õ±ˆ(€€€€€t°(€€€€€l(€€€€€€€€‹Ñ¡”ˆ°(€€€€€€€€‰¸ˆ(€€€€€t°(€€€€€l(€€€€€€€‹…¸ˆ°(€€€€€€€‰äˆ(€€€€€t°(€€€€€l(€€€€€€€€‹‚"À¢&Æöær ¢ÒÀ¢°¢&b"À¢'VÂ ¢ÒÀ¢°¢,JVâ"À¢&—FVB ¢ÒÀ¢°¢'R"À¢&6‚ ¢ÒÀ¢°¢,JB"À¢'&ç2 ¢ÒÀ¢°¢,J[H‹ˆ˜™\ˆ‚ˆKˆÂˆ±(Ûˆ‹ˆ›ÝÛˆ‚ˆKˆÂˆ•Ú‹ˆ›È‚ˆKˆÂˆ±(È‹ˆ›Ý[‚ˆKˆÂˆ±(c",
       "ap"
      ],
      [
        "i",
       "et"
      ],
      [
        "Ä m",
        "ain"
      ],
      [
       "in",
        "ce"
      ],
      [
        "Ä¡±”ˆ°(€€€€€€€€‰…ˆ(€€€€€t°(€€€€€l(€€€€€€€€‰¥˜ˆ°(€€€€€€€‰”ˆ(€€€€€t°(€€€€€l(€€€€€€€€‰•´ˆ°(€€€€€€€‰•¹Ðˆ(€€€€€t°(€€€€€l(€€€€€€€‹¥¸ˆ°(€€€€€€€‰ÍÐˆ(€€€€€t°(€€€€€l(€€€€€€€€‹Üˆ°(€€€€€€€€‰•±°ˆ(€€€€€t°(€€€€€l(€€€€€€€‹€€ˆ°(€€€€€€€€ˆ¼ˆ(€€€€€t°(€€€€€l(€€€€€€€€‰ˆˆ°(€€€€€€€€‰Õ´ˆ(€€€€€t°(€€€€€l(€€€€€€€€‰”ˆ°(€€€€€€€‰äˆ(€€€€€t°(€€€€€l(€€€€€€€€‰É¼ˆ°(€€€€€€€‰Üˆ(€€€€€t°(€€€€€l(€€€€€€€€‹‡7B"À¢'VB ¢ÒÀ¢°¢,J‹ˆš‚ˆKˆÂˆ±(m",
       "od"
      ],
      [
        "e",
       "p"
      ],
      [
        "Ä¡´ˆ°(€€€€€€€‰µ…äˆ(€€€€€t°(€€€€€l(€€€€€€€‹ˆˆ°(€€€€€€€€‰…¬ˆ(€€€€€t°(€€€€€l(€€€€€€€‹Lˆ°(€€€€€€€€‰ ˆ(€€€€€t°(€€€€€l(€€€€€€€€‰…Ðˆ°(€€€€€€€‰¥Ù”ˆ(€€€€€t°(€€€€€l(€€€€€€€‹¡…Èˆ°(€€€€€€€€‰…Ðˆ(€€€€€t°(€€€€€l(€€€€€€€‹Íäˆ°(€€€€€€€‰ÍÑ•´ˆ(€€€€€t°(€€€€€l(€€€€€€€€‹„"À¢'2 ¢ÒÀ¢°¢&—b"À¢&W" ¢ÒÀ¢°¢,J2"À¢&Ò ¢ÒÀ¢°¢,J‹ˆŒ‚ˆKˆÂˆ™\ˆ‹ˆ˜[‚ˆKˆÂˆ˜H‹ˆš\ˆ‚ˆKˆÂˆ±(H‹ˆ›™È‚ˆKˆÂˆš\È‹ˆ›H‚ˆKˆÂˆ™[‹ˆ™ˆ‚ˆKˆÂˆ±(ˆ‹ˆœš]‚ˆKˆÂˆ˜]‹ˆ\™H‚ˆKˆÂˆ›ÝH‹ˆ›ˆ‚ˆKˆÂˆš[ˆ‹ˆ™Y‚ˆKˆÂˆ±(e",
       "p"
      ],
      [
        "Ä¡°ˆ°(€€€€€€€‰¥­”ˆ(€€€€€t°(€€€€€l(€€€€€€€‰…°ˆ°(€€€€€€€€‰”ˆ(€€€€€t°(€€€€€l(€€€€€€€‹Ìˆ°(€€€€€€€€‰¥¹œˆ(€€€€€t°(€€€€€l(€€€€€€€‹¼ˆ°(€€€€€€€€‰ˆˆ(€€€€€t°(€€€€€l(€€€€€€€€‰¥±°ˆ°(€€€€€€€€‰¥½¸ˆ(€€€€€t°(€€€€€l(€€€€€€€€‰¤ˆ°(€€€€€€€‰•Èˆ(€€€€€t°(€€€€€l(€€€€€€€€‰¥•°ˆ°(€€€€€€€€‰ˆ(€€€€€t°(€€€€€l(€€€€€€€€‰Àˆ°(€€€€€€€€‰Èˆ(€€€€€t°(€€€€€l(€€€€€€€€‰”ˆ°(€€€€€€€€‰¬ˆ(€€€€€t°(€€€€€l(€€€€€€€€‹†–æ6ÇVB"À¢&–ær ¢ÒÀ¢°¢'B"À¢&–ær ¢ÒÀ¢°¢'fW""À¢&â ¢ÒÀ¢°¢,JH‹ˆ›Ûˆ‚ˆKˆÂˆ±(\‹ˆœH‚ˆKˆÂˆ˜È‹ˆ™\ÜÈ‚ˆKˆÂˆ±([Y\šXÈ‹ˆ˜[ˆ‚ˆKˆÂˆ±(c",
       "ar"
      ],
    ]
  }
}